<s>	0
</s>	0
<pad>	0
<unk>	0
,	-2.88075
的	-3.47593
。	-3.81583
▁	-3.90264
在	-4.76675
、	-4.93015
了	-5.04745
是	-5.33507
和	-5.34289
中	-5.5538
有	-5.58776
“	-5.59886
大	-5.61482
不	-5.63363
一	-5.64144
上	-5.64293
:	-5.68327
人	-5.72132
)	-5.72211
年	-5.74313
为	-5.76372
”	-5.79948
(	-5.84434
月	-5.90236
对	-5.93964
将	-6.00034
日	-6.00721
1	-6.02331
他	-6.04123
也	-6.06711
我	-6.12121
3	-6.13227
后	-6.14254
-	-6.16433
会	-6.18744
与	-6.19781
2	-6.21125
出	-6.23903
说	-6.24857
到	-6.2601
而	-6.28258
但	-6.28455
就	-6.28657
4	-6.33109
5	-6.3315
下	-6.33183
等	-6.33282
时	-6.35758
多	-6.36641
分	-6.37491
这	-6.38898
公司	-6.38934
小	-6.40628
新	-6.44254
高	-6.44763
。”	-6.4542
被	-6.4652
以	-6.47836
点	-6.47926
地	-6.48383
中国	-6.48524
》	-6.48728
我们	-6.51777
前	-6.51838
从	-6.51897
市场	-6.57044
都	-6.58469
《	-6.59629
来	-6.61203
7	-6.61544
6	-6.61757
家	-6.63921
要	-6.64783
8	-6.66037
;	-6.66323
于	-6.66374
10	-6.67354
好	-6.68822
9	-6.70243
斯	-6.71657
还	-6.71768
?	-6.74835
元	-6.74958
名	-6.76379
过	-6.78209
里	-6.7976
手	-6.82207
表示	-6.82786
队	-6.83103
用	-6.84085
一个	-6.84166
已经	-6.84538
性	-6.85066
球	-6.85211
向	-6.8649
内	-6.87075
天	-6.88265
三	-6.88912
可	-6.90013
国	-6.90475
外	-6.90884
发	-6.90988
A	-6.91231
尔	-6.91646
其	-6.92438
得	-6.93369
打	-6.93567
并	-6.93869
比	-6.94039
着	-6.94128
看	-6.94458
子	-6.94499
可以	-6.97049
称	-6.97224
长	-6.9723
目前	-6.97296
开	-6.97666
之	-6.98684
能	-6.99793
她	-7.00112
没有	-7.0097
本	-7.01493
线	-7.01769
已	-7.0179
场	-7.01797
文	-7.02046
特	-7.02154
最	-7.02312
力	-7.02689
行	-7.03007
给	-7.03485
所	-7.04119
让	-7.04207
你	-7.04995
股	-7.05008
做	-7.05406
利	-7.05941
更	-7.06325
个	-7.07348
德	-7.07757
很	-7.08306
他们	-7.08357
部	-7.08392
报	-7.08406
及	-7.08953
.	-7.09061
面	-7.09172
生	-7.09397
S	-7.09453
拉	-7.10122
美国	-7.10462
万	-7.10546
金	-7.11048
成	-7.1177
两	-7.12104
者	-7.12778
基金	-7.14436
记者	-7.14779
市	-7.14844
e	-7.15824
期	-7.15881
华	-7.16237
克	-7.16495
自己	-7.16739
心	-7.17239
/	-7.17684
去	-7.18132
无	-7.18257
:“	-7.1851
网	-7.18567
C	-7.1904
化	-7.1922
起	-7.19382
全	-7.19765
该	-7.20577
王	-7.20582
自	-7.20867
这个	-7.20883
位	-7.22988
强	-7.23298
重	-7.23346
D	-7.23468
机	-7.23604
法	-7.24279
至	-7.24335
卡	-7.24378
产品	-7.24495
进行	-7.24547
马	-7.24616
当	-7.25125
海	-7.25205
入	-7.26303
车	-7.26646
投资	-7.26763
美	-7.2728
11	-7.27825
学	-7.28636
12	-7.29104
企业	-7.2912
事	-7.29265
价	-7.29556
20	-7.29974
路	-7.30075
%	-7.32557
o	-7.32661
头	-7.32928
张	-7.33492
又	-7.3378
门	-7.34127
水	-7.34967
现在	-7.35436
平	-7.35509
就是	-7.35642
战	-7.35659
只	-7.36263
开始	-7.36324
方	-7.36391
想	-7.37868
时间	-7.38087
加	-7.38174
主	-7.38981
总	-7.39005
同	-7.39669
动	-7.39723
李	-7.39752
经济	-7.40377
赛	-7.40803
M	-7.41254
如果	-7.41509
西	-7.42572
局	-7.43106
再	-7.43288
达	-7.43532
通过	-7.43612
身	-7.43648
老	-7.43755
区	-7.43852
次	-7.44073
把	-7.44149
i	-7.44395
因为	-7.44986
量	-7.45398
E	-7.45568
今年	-7.46239
定	-7.46285
进	-7.46299
走	-7.46419
首	-7.46639
光	-7.46644
认为	-7.46812
发展	-7.47517
方面	-7.47786
银行	-7.4779
周	-7.47799
体	-7.48204
还是	-7.48375
道	-7.48663
二	-7.48688
非常	-7.48868
数	-7.49617
,“	-7.49626
可能	-7.50346
收	-7.50754
P	-7.50911
商	-7.50944
业	-7.50973
正	-7.51032
问题	-7.5111
回	-7.51252
实	-7.51726
或	-7.51881
约	-7.51888
受	-7.52532
工作	-7.52735
但是	-7.52834
成为	-7.52946
度	-7.53103
电	-7.53346
某	-7.53806
交	-7.5439
明	-7.54879
科	-7.55221
G	-7.55553
一些	-7.5586
号	-7.56401
以及	-7.56599
情	-7.57138
价格	-7.57698
女	-7.58103
却	-7.58284
19	-7.5882
四	-7.59008
行业	-7.59039
选	-7.59142
不过	-7.59207
s	-7.59548
亚	-7.59841
军	-7.60091
由	-7.60132
对于	-7.60267
同时	-7.60302
▁“	-7.60647
东	-7.60779
低	-7.60852
第	-7.60863
罗	-7.61038
之后	-7.61409
如	-7.61514
”。	-7.61551
则	-7.61583
作	-7.61883
单	-7.62216
30	-7.62543
处	-7.62841
B	-7.62977
近	-7.63164
红	-7.63932
口	-7.64104
通	-7.64178
连	-7.64349
风	-7.64419
林	-7.64423
技术	-7.64425
需要	-7.64735
安	-7.64768
工	-7.65053
转	-7.66632
!	-7.66665
那	-7.67087
国际	-7.67302
T	-7.68036
气	-7.68147
制	-7.68378
a	-7.68421
没	-7.68585
南	-7.68963
图	-7.68992
阿	-7.69022
0	-7.69135
”,	-7.69394
F	-7.69685
亿元	-7.69751
意	-7.70586
由于	-7.7103
出现	-7.7113
国家	-7.71379
类	-7.7214
这些	-7.7235
2010	-7.72533
北京	-7.72558
增长	-7.72707
陈	-7.72932
超	-7.7326
网络	-7.73568
其中	-7.73672
第一	-7.73785
级	-7.73874
希望	-7.73878
空	-7.74002
热	-7.74165
每	-7.74207
比赛	-7.74279
流	-7.75037
才	-7.75131
公	-7.75337
相	-7.75393
信息	-7.7556
资金	-7.7567
十	-7.76096
2009	-7.76102
球队	-7.76186
N	-7.76344
建	-7.76369
因	-7.76415
城	-7.76643
O	-7.76655
合	-7.77005
权	-7.77029
台	-7.77141
案	-7.77145
胜	-7.77207
服务	-7.77266
们	-7.7733
15	-7.77586
爱	-7.78152
此	-7.7822
曾	-7.78331
率	-7.79055
政府	-7.79252
接	-7.79278
虽然	-7.79332
L	-7.79428
山	-7.79744
费	-7.79944
R	-7.80016
信	-7.80268
保	-7.80396
太	-7.80502
理	-7.80811
用户	-7.80847
节	-7.80917
自己的	-7.81049
作为	-7.81333
应	-7.81713
跌	-7.81906
房	-7.82064
50	-7.82231
品	-7.82261
巴	-7.82701
管理	-7.82989
主要	-7.83176
媒体	-7.83817
选择	-7.83912
原	-7.83995
手机	-7.84024
双	-7.84096
现	-7.84213
上涨	-7.84217
消息	-7.8449
未	-7.845
世界	-7.84549
传	-7.84886
省	-7.84966
星	-7.85136
投	-7.85222
一直	-7.85318
放	-7.85357
关注	-7.8538
维	-7.85552
布	-7.85557
较	-7.8581
盘	-7.86456
书	-7.86544
球员	-7.86581
早	-7.86647
五	-7.8669
格	-7.86913
联	-7.87079
感	-7.87145
游戏	-7.87286
钱	-7.87389
见	-7.87608
大学	-7.87617
几	-7.87661
刘	-7.87717
款	-7.8777
交易	-7.87796
继续	-7.88493
轮	-7.88916
仍	-7.8902
计划	-7.89114
表现	-7.89198
影响	-7.89368
花	-7.89368
学生	-7.8946
18	-7.89518
·	-7.89541
13	-7.90089
民	-7.90197
16	-7.90264
米	-7.90409
上海	-7.90588
p	-7.90676
国内	-7.91121
支持	-7.9129
剧	-7.91349
业务	-7.91362
相关	-7.91599
尼	-7.91952
物	-7.91968
片	-7.92293
分钟	-7.92321
半	-7.92541
要求	-7.92602
不会	-7.92634
型	-7.92895
波	-7.93062
网站	-7.9314
均	-7.93188
证	-7.93337
快	-7.93645
亿	-7.93672
项目	-7.93962
问	-7.9399
都是	-7.943
专业	-7.94562
集团	-7.94677
送	-7.9474
带	-7.94818
获得	-7.95058
所以	-7.95123
指	-7.95282
H	-7.95282
其他	-7.95543
各	-7.95783
涨	-7.96224
因此	-7.96238
报道	-7.96441
能够	-7.9662
提供	-7.96654
使	-7.9679
美元	-7.96937
▁(	-7.97053
关	-7.97114
14	-7.97316
y	-7.97628
纳	-7.97652
投资者	-7.97797
买	-7.97849
进入	-7.97951
间	-7.97984
m	-7.98114
基	-7.98368
跟	-7.98478
设计	-7.98492
难	-7.98553
今天	-7.98726
万元	-7.9899
深	-7.9899
也是	-7.99178
活动	-7.99323
像	-7.99323
政策	-7.99395
包括	-7.99504
未来	-7.99575
第二	-7.99891
什么	-8.00338
还有	-8.00482
雷	-8.00717
使用	-8.01249
比较	-8.01388
防	-8.01615
考生	-8.01662
指数	-8.0197
证券	-8.02141
I	-8.02319
先	-8.02416
博	-8.02617
这一	-8.02887
考	-8.03208
去年	-8.03305
奇	-8.03896
集	-8.04338
生活	-8.04342
白	-8.04403
能力	-8.04469
换	-8.04674
预期	-8.04832
住	-8.04994
黄	-8.05234
d	-8.05358
清	-8.05458
站	-8.05546
升	-8.05582
复	-8.05738
立	-8.0579
精	-8.05976
发现	-8.06219
反	-8.06564
不是	-8.06599
经	-8.06607
V	-8.06688
色	-8.07062
它	-8.07192
北	-8.07204
变	-8.07596
失	-8.07771
全球	-8.08172
龙	-8.08281
解	-8.08365
数据	-8.08443
这样	-8.08473
这种	-8.08568
应该	-8.08857
装	-8.08912
而且	-8.09155
百	-8.0916
任	-8.09239
机构	-8.09745
远	-8.09823
不能	-8.09844
奥	-8.10006
下跌	-8.10258
组	-8.10295
占	-8.10303
奖	-8.10329
80	-8.10654
共	-8.11037
大家	-8.11056
资	-8.11362
超过	-8.1139
的时候	-8.11411
香港	-8.11457
这是	-8.11765
季	-8.11785
取	-8.12035
销售	-8.12145
u	-8.12159
。“	-8.12184
非	-8.12371
据	-8.12392
一次	-8.12513
话	-8.12644
提	-8.12693
代	-8.12697
25	-8.12745
边	-8.13118
很多	-8.13668
调整	-8.13753
显示	-8.13828
W	-8.1411
专	-8.14284
增加	-8.14286
研究	-8.14312
00	-8.14419
微博	-8.1451
便	-8.14613
根据	-8.14669
发生	-8.15166
眼	-8.15178
常	-8.15488
州	-8.15605
套	-8.15664
2008	-8.15703
少	-8.15876
t	-8.15947
17	-8.16093
所有	-8.1613
他的	-8.16414
客	-8.16527
部分	-8.16621
系统	-8.16671
来说	-8.16775
拥有	-8.16934
火	-8.17128
店	-8.17623
之前	-8.17656
功能	-8.17678
100	-8.17701
极	-8.17818
上市	-8.17844
2011	-8.18244
种	-8.18263
X	-8.18586
声	-8.18889
伤	-8.19038
真	-8.1936
拍	-8.1958
预	-8.19696
式	-8.19928
最终	-8.19939
看到	-8.20176
冠军	-8.20559
板块	-8.20668
月份	-8.21256
60	-8.21504
情况	-8.21557
合作	-8.21831
题	-8.21932
居	-8.22162
社会	-8.22283
银	-8.22491
宝	-8.22502
卖	-8.22612
调	-8.2264
达到	-8.22733
——	-8.22831
参加	-8.22833
品牌	-8.22973
查	-8.23356
c	-8.23464
兰	-8.23601
乐	-8.24159
员	-8.24192
只有	-8.24477
g	-8.24744
到了	-8.24792
额	-8.25089
最后	-8.25266
重要	-8.25362
负	-8.25541
n	-8.25809
并不	-8.25892
假	-8.25939
甚至	-8.25968
以来	-8.26033
28	-8.26328
金融	-8.26652
正在	-8.26798
包	-8.26842
23	-8.26859
水平	-8.26938
办	-8.2699
写	-8.27119
势	-8.27122
杨	-8.27129
中心	-8.27134
日本	-8.27306
24	-8.27363
谈	-8.27367
股票	-8.27696
院	-8.27832
预计	-8.28002
增	-8.28062
招	-8.28376
21	-8.28665
杀	-8.28727
普	-8.28844
那么	-8.28981
领	-8.29144
明显	-8.29153
实现	-8.29251
落	-8.29257
神	-8.29268
条	-8.29514
语	-8.29656
离	-8.29656
直	-8.29678
言	-8.29843
个人	-8.29855
K	-8.30449
两个	-8.30487
全国	-8.30581
亿美元	-8.30745
黑	-8.3079
推出	-8.3112
的是	-8.3119
留	-8.3134
夫	-8.31363
英	-8.31462
k	-8.31468
调查	-8.31481
创	-8.31486
当时	-8.3157
算	-8.31663
岁	-8.3168
别	-8.31866
学校	-8.32069
男	-8.32081
成功	-8.32101
足	-8.32218
结果	-8.32268
b	-8.32332
22	-8.32348
底	-8.32385
200	-8.32441
需求	-8.32465
演	-8.32579
得到	-8.32794
来看	-8.32856
推	-8.3294
余	-8.33127
拍摄	-8.3315
机会	-8.33184
er	-8.33271
牌	-8.33288
报告	-8.33517
是否	-8.33532
业绩	-8.33592
排	-8.33657
压力	-8.33687
完成	-8.33852
基本	-8.33916
只是	-8.33949
楼	-8.34105
段	-8.34285
板	-8.34338
迪	-8.34342
江	-8.34384
成绩	-8.34497
托	-8.34513
资产	-8.34544
产	-8.34549
联赛	-8.34585
关系	-8.34599
]	-8.34605
现场	-8.34747
决定	-8.34818
人员	-8.34841
除	-8.3487
干	-8.34875
发布	-8.35044
40	-8.35088
电影	-8.35145
大盘	-8.35518
仅	-8.35729
26	-8.35773
版	-8.35878
持续	-8.35925
试	-8.35929
差	-8.35992
孩子	-8.36005
户	-8.36078
透露	-8.36249
500	-8.36328
器	-8.36414
程	-8.36588
批	-8.36759
温	-8.36814
步	-8.36847
师	-8.37114
购	-8.37158
另外	-8.37433
飞	-8.37575
风险	-8.37807
质	-8.38324
其实	-8.38579
越	-8.38859
视	-8.39011
一样	-8.39013
这样的	-8.39102
发行	-8.39278
标	-8.3931
死	-8.39342
产业	-8.39388
倍	-8.39395
听	-8.39635
限	-8.39762
世	-8.39953
牛	-8.40032
减	-8.40205
游	-8.40395
优势	-8.40482
提高	-8.40547
六	-8.40595
教育	-8.40701
值	-8.40896
股份	-8.40926
准备	-8.40931
职	-8.41666
观	-8.41981
福	-8.42013
考试	-8.42122
接受	-8.42146
获	-8.42339
售	-8.42369
除了	-8.42535
运	-8.42955
模式	-8.42979
保持	-8.43002
in	-8.43005
油	-8.4303
笑	-8.43213
▁据	-8.43228
货	-8.43462
正式	-8.43475
戏	-8.43644
景	-8.43829
团	-8.43837
安全	-8.43855
改	-8.43987
存在	-8.44009
列	-8.4423
令	-8.443
左右	-8.44309
云	-8.44363
收入	-8.44412
反弹	-8.44485
互联网	-8.44551
致	-8.44724
消费者	-8.44755
初	-8.44925
不少	-8.44938
5%	-8.44969
威	-8.45024
视频	-8.45077
卫	-8.45099
随着	-8.45102
刚	-8.45128
昨日	-8.45222
连续	-8.45259
儿	-8.45431
▁在	-8.45447
古	-8.45623
即	-8.45694
内容	-8.45833
必须	-8.45837
八	-8.45978
有关	-8.46041
生产	-8.46058
代表	-8.46099
项	-8.46353
部门	-8.46359
停	-8.46517
射	-8.46542
an	-8.46629
股市	-8.46792
独	-8.46798
建设	-8.46909
第三	-8.47223
富	-8.47226
介绍	-8.47265
副	-8.47307
不断	-8.47463
议	-8.47553
俱乐部	-8.47882
进一步	-8.47912
森	-8.47955
地区	-8.47975
届	-8.47978
更多	-8.48091
抢	-8.4816
校	-8.48188
如何	-8.48277
不同	-8.48438
人士	-8.48489
室	-8.48529
近期	-8.48557
哈	-8.48689
欧洲	-8.4869
导	-8.48766
士	-8.48796
往	-8.488
班	-8.48893
采用	-8.4898
个月	-8.49107
晚	-8.49157
病	-8.49231
以上	-8.49266
27	-8.49355
追	-8.49647
关于	-8.498
杯	-8.49803
对手	-8.49891
方式	-8.49962
直接	-8.50136
然	-8.50329
网友	-8.50809
冲	-8.50811
脚	-8.50998
尽管	-8.51009
知道	-8.51057
配	-8.51109
人民币	-8.51132
整	-8.51175
昨天	-8.51188
莱	-8.51236
期货	-8.51272
是一个	-8.51461
请	-8.51468
整体	-8.51489
倒	-8.51742
宣布	-8.51787
on	-8.51795
下降	-8.51866
派	-8.51883
电话	-8.51894
伊	-8.51897
密	-8.51979
公布	-8.52053
再次	-8.52131
先生	-8.52212
▁北京时间	-8.52302
最高	-8.52315
切	-8.52348
志	-8.52418
伟	-8.52662
城市	-8.52796
新浪	-8.52817
或者	-8.52945
随	-8.5297
平台	-8.52982
完全	-8.53091
紧	-8.53094
大幅	-8.53127
石	-8.53171
准	-8.53246
字	-8.5332
为了	-8.53349
广	-8.53466
助	-8.53474
结束	-8.53631
状态	-8.53643
h	-8.53783
广告	-8.53936
源	-8.53942
按	-8.54234
服	-8.54305
汇	-8.54307
千	-8.54334
吧	-8.54341
诺	-8.54543
吉	-8.5478
待	-8.54955
阶段	-8.54957
科技	-8.54963
泰	-8.54977
中的	-8.54983
吴	-8.55064
无法	-8.55224
具有	-8.55296
何	-8.55296
支	-8.55308
核	-8.55311
压	-8.55395
丽	-8.55521
空间	-8.55574
喜欢	-8.55596
塔	-8.55691
99	-8.5581
春	-8.55821
影	-8.5584
宁	-8.55887
音	-8.55891
需	-8.56018
结	-8.56255
90	-8.56284
带来	-8.56369
降	-8.56468
此前	-8.56679
高考	-8.56736
f	-8.56754
事件	-8.5679
净	-8.56797
孙	-8.56837
呢	-8.5685
受到	-8.56944
一位	-8.5714
容	-8.57343
规模	-8.57405
彩	-8.57611
网上	-8.57879
读	-8.57918
角	-8.57938
标准	-8.58002
望	-8.58076
举	-8.58267
英国	-8.58297
管	-8.58332
电视	-8.5837
易	-8.58446
折	-8.58713
消费	-8.58758
表	-8.58805
分析	-8.58926
分别	-8.58982
票	-8.59008
航	-8.59037
过去	-8.59065
这次	-8.59117
萨	-8.59247
更加	-8.59291
行情	-8.593
一定	-8.59336
目标	-8.59395
会议	-8.59413
兴	-8.59426
攻	-8.59469
引	-8.5947
价值	-8.59515
救	-8.59559
讯	-8.5966
吃	-8.59714
瑞	-8.59988
训练	-8.60053
帮助	-8.60329
找	-8.60334
一名	-8.6049
控	-8.60528
木	-8.60542
拿	-8.60732
静	-8.60844
料	-8.60847
税	-8.60899
规定	-8.6101
论	-8.61161
29	-8.61185
导致	-8.61374
涨幅	-8.61425
玩家	-8.61592
满	-8.61622
完	-8.61827
之一	-8.61891
一下	-8.61946
药	-8.61968
京	-8.62126
记	-8.62283
公开	-8.62416
沙	-8.62451
▁新浪体育讯	-8.62468
双方	-8.62501
招生	-8.62603
开发	-8.62669
出来	-8.62727
环境	-8.62835
70	-8.62918
皮	-8.62985
任何	-8.6302
官	-8.63091
微	-8.63093
l	-8.6315
征	-8.63215
穿	-8.63223
层	-8.63359
来自	-8.6347
友	-8.63574
范	-8.63597
照	-8.63666
具	-8.63672
稳定	-8.63741
如此	-8.63759
建议	-8.63788
一起	-8.63825
勒	-8.63904
000	-8.63905
港	-8.64211
组织	-8.64355
目	-8.64574
平均	-8.64718
依然	-8.64849
控制	-8.65033
客户	-8.65092
指出	-8.651
峰	-8.65118
怎么	-8.65175
感觉	-8.65301
最近	-8.65326
样	-8.65343
今日	-8.65438
参与	-8.65533
随后	-8.65583
购买	-8.65592
座	-8.65777
位置	-8.65908
成本	-8.65925
录取	-8.65998
亲	-8.66217
玩	-8.66236
击	-8.66416
基础	-8.66447
ar	-8.66457
体育	-8.66498
件	-8.6656
短	-8.66808
地产	-8.66921
跑	-8.67102
走势	-8.67113
个股	-8.67141
经过	-8.67245
申请	-8.67395
赵	-8.67414
评	-8.6743
文化	-8.67549
讲	-8.67557
轻	-8.67574
谁	-8.67641
注	-8.67644
考虑	-8.67899
造成	-8.6794
U	-8.68009
商业	-8.68029
菲	-8.68107
不仅	-8.68214
解决	-8.68301
新闻	-8.6834
因素	-8.68405
面对	-8.68484
持	-8.68563
电子	-8.68609
晓	-8.69073
期间	-8.69172
营	-8.69283
资源	-8.69439
洛	-8.69486
众	-8.69509
九	-8.69539
朋友	-8.69627
提升	-8.69652
杰	-8.69677
思	-8.69732
蒂	-8.69847
秀	-8.69873
此次	-8.69921
端	-8.6999
w	-8.70012
房地产	-8.70035
移动	-8.7004
置	-8.70112
恩	-8.70232
提出	-8.7042
收购	-8.70422
求	-8.70454
球迷	-8.70503
显	-8.70538
盈利	-8.70562
封	-8.70584
七	-8.70588
也不	-8.7067
莫	-8.70719
)、	-8.70809
整个	-8.70824
变化	-8.70894
跳	-8.71004
赛季	-8.71039
行为	-8.71054
举行	-8.71242
属	-8.7134
韩国	-8.71341
特别	-8.71459
上升	-8.71473
有限公司	-8.71534
主场	-8.71536
突破	-8.71552
有些	-8.71571
修	-8.71694
吗	-8.71708
梅	-8.71909
界	-8.72127
并且	-8.72186
历史	-8.72223
铁	-8.72262
最大	-8.72289
教	-8.72329
关键	-8.72355
偏	-8.72391
例	-8.72391
弱	-8.72507
起来	-8.72618
处理	-8.72733
围	-8.72745
两人	-8.72897
索	-8.72919
同样	-8.72931
欧	-8.72982
血	-8.73312
时候	-8.73331
急	-8.73434
付	-8.73457
仍然	-8.7353
专家	-8.73549
缺	-8.73868
当然	-8.74028
词	-8.74042
必	-8.7414
青	-8.74497
警	-8.74517
幕	-8.74523
觉得	-8.74591
600	-8.74592
惊	-8.74599
积极	-8.74622
阳	-8.74697
一场	-8.75153
操作	-8.75189
300	-8.75378
计	-8.7545
的人	-8.75573
不错	-8.75705
J	-8.75911
造	-8.75915
相对	-8.75951
进攻	-8.75983
。(	-8.76
争	-8.76098
尽	-8.76133
录	-8.76248
出了	-8.76291
展	-8.76319
......	-8.7635
签	-8.76449
31	-8.76519
一般	-8.76721
形	-8.76743
歌	-8.76939
丹	-8.77086
绝	-8.77129
顶	-8.77157
您	-8.77162
▁《	-8.77186
形成	-8.77189
一年	-8.77195
知	-8.77281
掉	-8.7736
断	-8.77431
模	-8.77509
果	-8.77542
也有	-8.77549
伯	-8.77583
很大	-8.77667
最新	-8.7768
塞	-8.77809
HK	-8.77989
供	-8.78004
示	-8.78046
消	-8.78051
酒	-8.781
佳	-8.78105
了解	-8.78303
汽车	-8.78355
一种	-8.78414
警方	-8.78596
农	-8.78687
借	-8.78738
场比赛	-8.7875
震荡	-8.7881
顿	-8.78897
效果	-8.78918
’	-8.78983
审	-8.79067
按照	-8.79075
息	-8.79093
承	-8.79101
09	-8.79148
推荐	-8.79156
告	-8.79249
相信	-8.79279
明星	-8.79309
备	-8.79356
若	-8.79401
防守	-8.79477
▁记者	-8.79509
领域	-8.79529
仓	-8.79548
贵	-8.79564
经营	-8.79583
政	-8.79689
领先	-8.79754
时尚	-8.79783
叫	-8.79954
相比	-8.79976
or	-8.80098
党	-8.80109
al	-8.80185
一家	-8.80276
销	-8.80285
输	-8.80342
群	-8.80353
维持	-8.80415
背	-8.80706
补	-8.80818
股价	-8.80909
综合	-8.8096
软件	-8.81066
有效	-8.81077
有所	-8.81108
靠	-8.81295
音乐	-8.813
系列	-8.81323
趋势	-8.81364
深圳	-8.81368
重点	-8.81443
鲁	-8.81463
坐	-8.81724
医院	-8.81739
近日	-8.81904
私	-8.8198
笔	-8.82098
盖	-8.82219
的问题	-8.82271
圈	-8.82393
创新	-8.82445
韩	-8.82551
亮	-8.82629
成交	-8.82709
暴	-8.82807
全部	-8.82816
截至	-8.82838
首次	-8.83068
命	-8.83077
+	-8.83103
郑	-8.83123
衣	-8.83227
联系	-8.83265
养	-8.83325
规	-8.83348
十分	-8.83434
x	-8.8348
学习	-8.83493
害	-8.83543
苏	-8.83895
曼	-8.83964
止	-8.84009
教练	-8.84144
!”	-8.8415
甲	-8.84207
利用	-8.84258
效	-8.8426
破	-8.84391
馆	-8.84475
码	-8.84541
工程	-8.84571
这么	-8.8468
取得	-8.84737
男子	-8.84752
徐	-8.84841
镜头	-8.84873
冷	-8.84877
盛	-8.84987
守	-8.85003
原因	-8.8503
存	-8.85041
许	-8.85217
条件	-8.85386
棋	-8.85413
2%	-8.85484
治	-8.85503
齐	-8.85509
武	-8.85624
3%	-8.85737
论坛	-8.85762
哥	-8.85798
伦	-8.85849
优	-8.85877
传统	-8.85902
市场的	-8.85904
败	-8.85982
上的	-8.8604
村	-8.86101
人们	-8.86107
河	-8.86174
1%	-8.86243
夜	-8.86279
竞争	-8.86377
作用	-8.86391
锋	-8.86427
罚	-8.86531
务	-8.86538
秒	-8.86626
处于	-8.86634
新的	-8.8679
速度	-8.86853
设	-8.86911
肯定	-8.86912
2007	-8.86929
且	-8.86947
家具	-8.86949
久	-8.86989
的话	-8.86997
实力	-8.87142
人的	-8.87201
最大的	-8.87461
活	-8.87497
老师	-8.87523
愿	-8.87526
火箭	-8.87531
比如	-8.87606
统计	-8.87666
跌幅	-8.87687
‘	-8.87728
埃	-8.87765
并没有	-8.87931
县	-8.88038
阵	-8.88199
永	-8.88734
产生	-8.88783
财	-8.88851
方案	-8.89153
简	-8.89192
德国	-8.8922
蓝	-8.89222
社	-8.89308
委	-8.89312
将在	-8.89349
对此	-8.89403
此外	-8.89454
观众	-8.89487
进球	-8.89573
课	-8.89589
贝	-8.89726
努力	-8.89762
疑	-8.89866
协	-8.89917
改变	-8.89968
长期	-8.90075
具体	-8.90097
唱	-8.90117
库	-8.90166
租	-8.90184
只能	-8.90249
学院	-8.90335
礼	-8.90513
节目	-8.90538
联合	-8.90661
钢	-8.90678
胡	-8.90738
岁的	-8.90815
田	-8.90928
巨	-8.90944
真正	-8.91039
继	-8.91052
不到	-8.91102
商品	-8.91158
几乎	-8.91194
谢	-8.91311
人民	-8.91391
细	-8.91401
汉	-8.9152
的比赛	-8.91538
面临	-8.91559
合同	-8.91565
良	-8.91622
功	-8.91748
智	-8.91924
协议	-8.92052
顺	-8.92065
境	-8.92091
杆	-8.92109
姆	-8.92127
探	-8.92143
主力	-8.92774
编	-8.92862
夏	-8.92883
对方	-8.93062
】	-8.93159
潮	-8.932
较大	-8.93201
确定	-8.93316
只要	-8.93481
贷款	-8.93622
我的	-8.93704
4%	-8.93728
豪	-8.93837
mm	-8.93891
义	-8.93954
减少	-8.94054
报价	-8.94088
镇	-8.94131
康	-8.94204
r	-8.9422
该公司	-8.94244
年度	-8.94312
队员	-8.94326
足球	-8.94539
退	-8.94549
应用	-8.94573
全面	-8.94609
经验	-8.94611
将会	-8.94781
越来越	-8.94834
缩	-8.94885
更是	-8.94919
核心	-8.95116
法院	-8.95163
不要	-8.95241
比例	-8.95254
这款	-8.95376
持有	-8.95833
领导	-8.95976
自然	-8.96108
严重	-8.96126
注意	-8.96136
台湾	-8.96221
▁[	-8.96246
架	-8.9627
凯	-8.96478
机身	-8.9658
的表现	-8.96584
朱	-8.96614
句	-8.96886
债	-8.96887
瓦	-8.97137
兵	-8.97152
街	-8.97252
延	-8.97385
左	-8.97472
灵	-8.9781
赢	-8.97843
判	-8.97909
决	-8.97932
之间	-8.97991
嘉	-8.98052
分析师	-8.98143
英寸	-8.98145
属于	-8.98271
针对	-8.98366
支付	-8.98368
今	-8.98503
股权	-8.98512
终	-8.98514
笔记本	-8.98535
严	-8.98639
普通	-8.98669
护	-8.98737
发挥	-8.98828
家庭	-8.98897
黄金	-8.99034
榜	-8.9914
内地	-8.99196
勇	-8.9925
各种	-8.99355
快速	-8.99377
实施	-8.99471
日前	-8.9953
杜	-8.99534
推动	-8.99645
稳	-8.99692
归	-8.99697
广州	-8.99719
相当	-8.99792
许多	-8.99805
焦	-8.99823
短期	-8.99927
洋	-9.00024
找到	-9.00053
战略	-9.00061
历	-9.00087
材料	-9.00128
6%	-9.00179
我国	-9.00284
食	-9.00887
电脑	-9.01075
散	-9.01108
比赛中	-9.01142
信心	-9.01258
弗	-9.01328
充	-9.01489
7%	-9.01503
姚明	-9.01676
档	-9.01741
8%	-9.01767
园	-9.0181
收益	-9.01822
婚	-9.01908
吸引	-9.01942
味	-9.02039
露	-9.02151
一点	-9.02206
重新	-9.02296
保护	-9.02325
共同	-9.02382
雨	-9.02398
志愿	-9.02449
国家队	-9.02579
800	-9.02602
出色	-9.02721
责任	-9.0281
很好	-9.02957
麦	-9.02974
经历	-9.03063
曾经	-9.03233
苹果	-9.03395
郭	-9.03459
唐	-9.03477
建筑	-9.03519
聚	-9.03669
配置	-9.03673
我要评论	-9.03797
即将	-9.03834
厂	-9.04013
评级	-9.04066
35	-9.04138
容易	-9.04269
画	-9.045
本周	-9.04544
雅	-9.04565
雪	-9.04797
宏	-9.04817
风格	-9.04832
印	-9.04887
性能	-9.04888
成立	-9.04889
保证	-9.04916
帕	-9.04933
资本	-9.04957
加强	-9.04985
临	-9.05032
喜	-9.05053
利润	-9.05098
含	-9.0521
了一个	-9.05216
冰	-9.05274
▁S	-9.05285
单位	-9.05294
使得	-9.05317
时代	-9.05369
客场	-9.05395
泽	-9.05432
45	-9.05441
职业	-9.05529
劳	-9.05632
措施	-9.05635
透	-9.05678
亚洲	-9.05707
测	-9.05876
万美元	-9.06078
然而	-9.061
主席	-9.06109
广东	-9.0633
下午	-9.06385
矿	-9.06526
系	-9.0654
大量	-9.06621
股东	-9.0665
我们的	-9.0674
根	-9.0675
儿子	-9.06886
▁【	-9.06893
才能	-9.07066
末	-9.07068
结构	-9.07132
▁C	-9.0714
帮	-9.07154
略	-9.07299
苦	-9.0733
相机	-9.0744
赶	-9.0745
篮	-9.07525
宽	-9.07538
en	-9.07615
答	-9.07631
re	-9.07666
弹	-9.0777
队的	-9.07787
小时	-9.07815
然后	-9.07935
×	-9.07951
高校	-9.08009
史	-9.08012
进行了	-9.08026
佩	-9.08138
附近	-9.08156
离开	-9.08188
采取	-9.08277
土	-9.08308
米兰	-9.08384
将于	-9.08491
更多的	-9.08506
有望	-9.08514
东西	-9.08582
简单	-9.08869
法国	-9.0888
实际	-9.08904
曲	-9.08915
_	-9.08925
都有	-9.09002
程度	-9.09024
梁	-9.09066
艺术	-9.09144
中央	-9.09183
排名	-9.09198
角色	-9.09271
翻	-9.09467
过程中	-9.0965
设备	-9.09682
幅	-9.09713
都会	-9.09827
梦	-9.09891
说明	-9.09923
块	-9.09932
区域	-9.09972
不可	-9.10008
娱乐	-9.10076
本次	-9.10125
纯	-9.10169
毛	-9.10176
世界杯	-9.10225
似乎	-9.10334
400	-9.10418
数字	-9.10433
照片	-9.10451
安排	-9.10495
而言	-9.1061
尚	-9.10697
首先	-9.10707
皇马	-9.1071
西班牙	-9.10776
右	-9.10799
恢复	-9.10842
估值	-9.10865
32	-9.10868
扬	-9.11004
隆	-9.11081
健	-9.11103
9%	-9.11181
登	-9.11202
健康	-9.11236
的时间	-9.11289
公告	-9.11417
监	-9.11451
制造	-9.11543
罪	-9.11547
赞	-9.11701
导演	-9.11705
让人	-9.11947
吨	-9.11986
一切	-9.12024
几个	-9.12038
毒	-9.12044
遇	-9.1205
日消息	-9.1207
份	-9.12122
诚	-9.1213
负责人	-9.12286
[	-9.12433
采访	-9.1245
质量	-9.12502
it	-9.12511
报名	-9.12754
担心	-9.12818
第四	-9.12941
贴	-9.12975
亦	-9.12987
股指	-9.13184
挑战	-9.13246
得分	-9.13269
年轻	-9.13324
融资	-9.13335
厚	-9.13413
以后	-9.13452
至少	-9.13523
-1	-9.13571
恶	-9.13577
召开	-9.13637
成长	-9.13657
振	-9.1369
扣	-9.13708
遭	-9.13838
帅	-9.13886
策略	-9.13934
环	-9.14056
数量	-9.14082
法律	-9.14118
索尼	-9.14171
方向	-9.14196
如今	-9.14213
乔	-9.14218
2000	-9.14278
典	-9.14297
默	-9.14372
的发展	-9.14507
的情况下	-9.14532
荣	-9.14574
当地	-9.14632
认	-9.14679
他说	-9.14683
高清	-9.147
收盘	-9.14718
纸	-9.14851
上市公司	-9.15146
改革	-9.15268
正常	-9.15271
央行	-9.15279
错	-9.15406
上周	-9.15431
异	-9.15488
利亚	-9.15491
本赛季	-9.15611
出口	-9.15639
宇	-9.15716
灾	-9.15803
哪	-9.15854
藏	-9.1588
迅速	-9.15984
演员	-9.15989
明年	-9.16004
筹	-9.16112
乡	-9.16205
灯	-9.16267
最佳	-9.16331
迷	-9.16349
旗下	-9.16399
有人	-9.16432
08	-9.16442
身体	-9.16469
意大利	-9.16506
精神	-9.16527
明确	-9.16636
章	-9.16781
零	-9.1684
曼联	-9.16877
就会	-9.16887
刚刚	-9.16915
ic	-9.16945
告诉	-9.17179
魔	-9.17203
那些	-9.17296
当前	-9.1734
有可能	-9.17356
抗	-9.17509
谷歌	-9.17557
冠	-9.17584
后卫	-9.17621
具备	-9.17623
恋	-9.17685
选手	-9.17698
确实	-9.17748
的朋友	-9.17818
鹏	-9.17884
支撑	-9.17977
两年	-9.1811
规划	-9.18201
联盟	-9.1829
脸	-9.18301
监管	-9.18309
岛	-9.18415
女儿	-9.18445
巴萨	-9.18565
中国队	-9.18627
免	-9.18661
资料	-9.18738
展开	-9.189
▁A	-9.19051
扩大	-9.19083
真的	-9.19162
巨大	-9.19268
终于	-9.19278
日电	-9.19335
姐	-9.19342
行动	-9.19449
蒙	-9.19499
怕	-9.19598
位于	-9.19637
铜	-9.19685
88	-9.19747
他们的	-9.19817
当天	-9.19917
积	-9.19996
丰	-9.20071
再度	-9.2008
纪	-9.20149
33	-9.20181
庆	-9.20194
员工	-9.20271
冬	-9.20496
医	-9.20511
很难	-9.2052
电信	-9.20533
测试	-9.20709
债券	-9.2072
不足	-9.20759
预测	-9.20791
玉	-9.20816
下滑	-9.20868
尾	-9.2088
?”	-9.21056
的影响	-9.21182
乱	-9.21221
令人	-9.21344
上述	-9.21419
访	-9.21441
运动	-9.21526
证明	-9.21543
这位	-9.2156
值得	-9.21638
投入	-9.21651
恒	-9.21707
坚	-9.21751
通知	-9.21809
升级	-9.21843
过程	-9.21885
以下	-9.21932
委员会	-9.22015
突然	-9.22024
第一次	-9.22026
建立	-9.22491
采用了	-9.22512
他在	-9.22523
感到	-9.22602
绝对	-9.22632
体验	-9.22668
满足	-9.22742
堂	-9.22781
吸	-9.22853
洗	-9.22921
的情况	-9.22933
坚持	-9.22947
参	-9.22985
概念	-9.22985
心理	-9.23009
披露	-9.23078
晨	-9.23114
es	-9.23122
鱼	-9.23154
扎	-9.23225
佳能	-9.23266
执行	-9.2331
每天	-9.2348
负责	-9.23591
刺激	-9.2361
竞	-9.23766
总统	-9.23773
0%	-9.2385
屏幕	-9.23859
一天	-9.23881
戴	-9.23933
益	-9.23956
面积	-9.23969
兼	-9.24
酒店	-9.24011
1000	-9.24063
隐	-9.24175
绿	-9.24284
替	-9.2436
刀	-9.2443
呼	-9.24451
也会	-9.24467
36	-9.24486
Z	-9.245
Y	-9.24559
办法	-9.24623
AC	-9.24707
忙	-9.24766
踢	-9.24772
创造	-9.24782
难以	-9.25008
检	-9.2523
官方	-9.25239
播	-9.25299
人物	-9.25305
st	-9.25332
剩	-9.25404
石油	-9.25522
三个	-9.25531
加入	-9.25531
v	-9.25538
伙	-9.25667
船	-9.25707
众多	-9.25721
决赛	-9.25758
提前	-9.25767
湖人	-9.25875
外观	-9.26024
做出	-9.26239
而是	-9.26392
商家	-9.26406
熊	-9.26661
洁	-9.26739
薪	-9.26902
三分	-9.26905
的机会	-9.26966
顾	-9.27095
来到	-9.27179
状况	-9.27204
出场	-9.27353
洞	-9.27479
合约	-9.27545
ch	-9.27639
海外	-9.27658
一度	-9.27756
▁李	-9.27886
任务	-9.27894
符合	-9.2798
触	-9.28016
险	-9.2802
运营	-9.28031
强调	-9.28113
另一	-9.28124
地方	-9.28134
ro	-9.28147
集中	-9.28242
科学	-9.28256
伴	-9.28343
团队	-9.28396
降低	-9.28398
拿到	-9.28405
念	-9.28411
意味着	-9.28481
逐渐	-9.2865
万像素	-9.28682
旧	-9.28683
尤其是	-9.28705
保险	-9.28741
组合	-9.28811
危机	-9.28867
▁新浪娱乐讯	-9.28884
枪	-9.28988
▁从	-9.28999
意见	-9.29062
基金公司	-9.29167
控股	-9.29176
38	-9.29218
工业	-9.29222
回到	-9.29254
交通	-9.29322
费用	-9.29358
沉	-9.29401
同比	-9.29493
拟	-9.29567
状	-9.29567
le	-9.29592
屏	-9.29642
发表	-9.2969
卷	-9.29766
赫	-9.29788
开放	-9.298
回落	-9.29807
族	-9.29936
以前	-9.30247
受伤	-9.30248
申	-9.30253
态度	-9.30277
阵容	-9.30345
距离	-9.30379
可能会	-9.30399
的一个	-9.3042
更好	-9.30454
韦	-9.30595
松	-9.30612
经常	-9.30618
菜	-9.30652
为什么	-9.30674
淡	-9.30782
震	-9.30802
充分	-9.30803
良好	-9.30874
低于	-9.30907
目的	-9.30951
范围	-9.30953
丁	-9.30955
3000	-9.31121
根本	-9.31124
即使	-9.31149
纽约	-9.3117
餐	-9.31196
禁区	-9.31205
胜利	-9.31222
适	-9.31271
看来	-9.31413
逃	-9.31432
执	-9.31433
上半年	-9.31458
配合	-9.31481
后来	-9.31492
树	-9.31513
避	-9.31515
工作人员	-9.31533
年底	-9.31568
愿意	-9.31617
总经理	-9.3178
39	-9.31816
至于	-9.3184
期待	-9.31958
宣传	-9.31975
不知道	-9.32158
看好	-9.32185
企	-9.32225
秋	-9.32226
的事情	-9.32315
接口	-9.32411
正是	-9.32508
图片	-9.32862
司	-9.32931
98	-9.32934
处理器	-9.32962
供应	-9.32994
暗	-9.33079
资格	-9.33102
我觉得	-9.3315
力量	-9.33151
桥	-9.33247
适合	-9.33524
虎	-9.33543
俄罗斯	-9.33599
保障	-9.33662
引起	-9.33857
每股	-9.33874
NBA	-9.33925
朝	-9.34066
都在	-9.34075
多少	-9.34149
为主	-9.34194
卢	-9.34199
Q	-9.34203
草	-9.34243
▁新浪财经讯	-9.34343
是个	-9.34474
成了	-9.34496
三星	-9.34593
现象	-9.34622
告诉记者	-9.34733
速	-9.3479
材	-9.34896
斗	-9.34918
55	-9.34975
下来	-9.35303
每个	-9.35328
高速	-9.35362
董事会	-9.35449
名单	-9.35455
高达	-9.35469
洪	-9.35487
z	-9.35528
激	-9.35542
镜	-9.35565
百度	-9.35572
互	-9.35574
山东	-9.3559
com	-9.3563
响	-9.35654
引发	-9.3566
施	-9.35819
显然	-9.35987
民警	-9.3601
惠	-9.36016
抽	-9.36044
人数	-9.36109
at	-9.36113
琳	-9.3619
方法	-9.36195
同学	-9.36223
体系	-9.3624
希	-9.36384
前锋	-9.36386
渠道	-9.36391
现金	-9.36411
舞	-9.36429
怪	-9.36528
院校	-9.36565
野	-9.36579
箱	-9.36626
既	-9.3665
沪	-9.36657
在线	-9.3666
大部分	-9.36883
2006	-9.36926
比分	-9.36937
刻	-9.36958
故事	-9.36971
最低	-9.3698
作品	-9.37064
通胀	-9.3707
内部	-9.37248
自由	-9.37326
家居	-9.37472
制度	-9.37503
鲜	-9.37505
▁M	-9.37512
一款	-9.37539
迫	-9.37604
的球员	-9.3764
享受	-9.37718
抱	-9.37733
爆	-9.37783
理解	-9.37818
遭遇	-9.37871
你们	-9.37985
而在	-9.38029
打造	-9.38032
▁P	-9.38133
丰富	-9.38242
出现了	-9.38424
两市	-9.38473
固	-9.38476
营销	-9.38479
钟	-9.38485
幅度	-9.38488
角度	-9.38495
计算	-9.38526
唯一	-9.38658
些	-9.3868
全新	-9.38756
黎	-9.38803
解释	-9.38821
接近	-9.38888
就业	-9.38951
▁对于	-9.38969
艾	-9.39001
利率	-9.39012
奥运会	-9.39054
摩	-9.39196
”、“	-9.39204
桑	-9.39224
优秀	-9.39226
启动	-9.39242
父亲	-9.39292
淘宝	-9.39333
数据显示	-9.39354
普遍	-9.39415
搜索	-9.39528
意义	-9.39647
文章	-9.39673
大型	-9.39726
年前	-9.39832
盗	-9.39864
频	-9.39896
女子	-9.39926
▁B	-9.39973
香	-9.39983
那个	-9.40053
评论	-9.40106
江苏	-9.40108
女士	-9.40108
事情	-9.40168
几年	-9.40324
强势	-9.40328
重大	-9.40381
42	-9.40423
轻松	-9.40444
一份	-9.40485
制作	-9.40528
厅	-9.40623
结合	-9.40629
品种	-9.40662
拼	-9.40769
动作	-9.40989
》、《	-9.41015
联想	-9.41034
反映	-9.41066
政治	-9.4113
敌	-9.41141
加盟	-9.41157
货币	-9.41183
妹	-9.41211
在中国	-9.41285
之外	-9.41336
首发	-9.41347
邓	-9.41417
横	-9.41437
还要	-9.41503
啊	-9.4151
担任	-9.41514
从而	-9.41527
巴西	-9.41619
死亡	-9.41668
注册	-9.41684
本报记者	-9.41696
困难	-9.4178
续	-9.41839
身份	-9.41849
46	-9.41887
考研	-9.41955
载	-9.41979
朗	-9.42001
指标	-9.42078
素	-9.42078
是因为	-9.42148
另	-9.4226
骨	-9.42377
土地	-9.42386
主动	-9.42403
▁张	-9.4242
平米	-9.42448
出席	-9.42499
家长	-9.42512
肉	-9.42585
老板	-9.42597
订	-9.42618
48	-9.42634
咨询	-9.4264
身上	-9.42686
金额	-9.42696
确认	-9.42781
乌	-9.42869
判断	-9.42932
1.5	-9.42956
上网	-9.43016
贾	-9.43032
剑	-9.43059
环保	-9.43065
席	-9.43088
巧	-9.43116
不同的	-9.43139
利益	-9.43259
浪	-9.43315
上午	-9.43317
迟	-9.43326
象	-9.43436
事业	-9.4348
亏损	-9.43516
重组	-9.43534
本科	-9.43552
纷纷	-9.43572
母	-9.43578
患	-9.43626
辛	-9.43663
诉	-9.43822
冲击	-9.43878
挺	-9.43927
成员	-9.43951
的价格	-9.43963
显得	-9.4397
净利润	-9.4399
电子商务	-9.44009
"	-9.44015
一旦	-9.44042
加上	-9.44051
搭配	-9.44098
酷	-9.4416
东方	-9.4418
掌	-9.44189
撞	-9.44273
很快	-9.44299
独立	-9.44341
37	-9.44341
无线	-9.44343
特点	-9.44354
途	-9.44372
刑	-9.44398
戈	-9.44399
猛	-9.44442
原油	-9.44462
沃	-9.44529
犯	-9.44542
缓	-9.44685
主帅	-9.44734
练	-9.44807
运行	-9.44838
英语	-9.44975
重庆	-9.45037
旅游	-9.45046
怀	-9.4505
叶	-9.45084
情绪	-9.45182
硬	-9.45202
形象	-9.45224
豆	-9.45293
港元	-9.45313
点击	-9.45374
艺	-9.45385
延续	-9.45446
清楚	-9.45454
▁本报讯	-9.45533
依	-9.45538
体现	-9.45609
善	-9.45613
球场	-9.45667
多次	-9.4574
父母	-9.4575
每年	-9.45776
厂商	-9.45853
能源	-9.45873
协会	-9.4591
GB	-9.46035
当年	-9.46159
et	-9.46339
宋	-9.4637
合理	-9.4638
最后一	-9.46404
阻	-9.46424
呈现	-9.46441
欣	-9.46442
队友	-9.46461
凡	-9.46517
逐步	-9.46523
痛	-9.4656
糖	-9.46576
网游	-9.46611
挂	-9.46624
或许	-9.46669
有着	-9.46669
▁王	-9.46714
也许	-9.46748
稍	-9.46757
还在	-9.46831
潜	-9.46848
主题	-9.4685
完美	-9.46948
交流	-9.47009
纪录	-9.4709
攻击	-9.47119
表明	-9.47139
世纪	-9.47157
特别是	-9.47221
主任	-9.47237
圣	-9.47243
同比增长	-9.47264
结婚	-9.473
贡献	-9.47321
并非	-9.47341
欲	-9.47365
不好	-9.4737
避免	-9.47397
放弃	-9.474
季度	-9.47451
不再	-9.47452
娜	-9.47584
赢得	-9.47593
佛	-9.47625
搞	-9.47724
动力	-9.47745
微软	-9.47907
雄	-9.47928
售价	-9.48004
as	-9.4803
前期	-9.48205
的方式	-9.48221
68	-9.48252
方便	-9.48287
跨	-9.48331
转会	-9.4836
观点	-9.48457
账	-9.48473
限制	-9.48499
什	-9.48504
研发	-9.48511
更为	-9.4862
金属	-9.48649
珠	-9.48786
畅	-9.48886
表演	-9.48919
昌	-9.49011
遗	-9.49146
脑	-9.49148
ing	-9.49157
形势	-9.49164
抛	-9.49172
并不是	-9.49186
人才	-9.4925
精彩	-9.49255
出台	-9.4931
皇	-9.49439
煤	-9.4951
太阳	-9.49525
阴	-9.49585
开盘	-9.49671
承认	-9.49699
抵	-9.49729
0.2	-9.49731
天津	-9.49926
当中	-9.49928
姓	-9.4997
据了解	-9.50081
迎	-9.5014
数码	-9.50211
讨	-9.50213
研	-9.50239
烈	-9.50322
高端	-9.50347
圆	-9.50448
--	-9.50466
忘	-9.50574
实际上	-9.50606
国外	-9.50615
逼	-9.50624
形式	-9.50626
敏	-9.50658
宣	-9.50676
母亲	-9.50687
床	-9.50711
邮	-9.5073
饭	-9.50746
旅	-9.50762
损失	-9.50791
宗	-9.50894
介	-9.50918
还没有	-9.51029
34	-9.51091
交易所	-9.51142
商务	-9.51194
至今	-9.51491
免费	-9.51573
违	-9.51616
is	-9.51675
05	-9.51774
储	-9.51924
采	-9.51986
▁G	-9.52001
曝光	-9.52026
渐	-9.52052
替补	-9.52167
启	-9.52203
这里	-9.52216
俊	-9.52272
烟	-9.5237
报考	-9.52373
附	-9.52421
脱	-9.52429
仅仅	-9.52499
也将	-9.52525
ST	-9.52625
乐观	-9.52705
侧	-9.52755
讨论	-9.52789
涉及	-9.52796
突	-9.52824
日晚	-9.52875
给予	-9.52911
妻子	-9.52947
揭	-9.53009
抓	-9.53019
前景	-9.53048
回应	-9.53053
声明	-9.53193
的重要	-9.53224
并未	-9.53226
蔡	-9.53226
拒绝	-9.53262
捷	-9.53284
类似	-9.53376
买入	-9.53376
较为	-9.53447
作出	-9.53515
敬	-9.53708
ol	-9.53721
霍	-9.53723
陆	-9.53769
加大	-9.53803
认识	-9.53828
万吨	-9.53885
孔	-9.53891
有一个	-9.53937
评价	-9.53995
庭	-9.54111
紧张	-9.54151
刺	-9.54167
研究生	-9.54186
番	-9.54378
训	-9.5448
颇	-9.54518
也没有	-9.54551
知识	-9.54564
市场上	-9.54567
希腊	-9.54573
事实上	-9.54596
则是	-9.54605
同意	-9.54627
知名	-9.54633
澳	-9.54694
能否	-9.54758
中场	-9.54803
偷	-9.5482
巡	-9.54844
场上	-9.54908
裁判	-9.54972
闪	-9.55013
奥巴马	-9.55024
浙江	-9.55041
ri	-9.55097
港股	-9.5512
摆	-9.55159
斯特	-9.55227
之间的	-9.55235
穆	-9.55241
庄	-9.55264
月底	-9.55265
劲	-9.55274
辉	-9.55312
PS	-9.55328
700	-9.55435
用于	-9.55483
及时	-9.55672
券商	-9.55684
传媒	-9.55741
返	-9.55866
最多	-9.55919
日下午	-9.55924
01	-9.5594
切尔西	-9.55948
赴	-9.55976
术	-9.56129
ed	-9.56153
滑	-9.56327
时刻	-9.56336
足协	-9.56481
拿下	-9.56487
述	-9.56582
0.1	-9.56629
博客	-9.56674
家人	-9.56697
赌	-9.56706
薄	-9.56712
稿	-9.56716
留学	-9.56828
活跃	-9.56847
成都	-9.56875
恒指	-9.5693
地位	-9.56973
通信	-9.57006
无疑	-9.57031
骗	-9.57068
财政	-9.57137
狂	-9.5718
66	-9.57222
财务	-9.57377
做好	-9.5738
现代	-9.57381
缘	-9.57436
股市场	-9.57626
谷	-9.57645
太多	-9.57706
2.5	-9.57716
主教练	-9.57769
川	-9.57815
故	-9.57877
该机	-9.57975
贸易	-9.58009
am	-9.58014
休	-9.58031
65	-9.58102
经典	-9.5812
印度	-9.58142
意外	-9.58267
误	-9.58282
隔	-9.58362
燃	-9.58403
在北京	-9.58459
拆	-9.58489
年来	-9.58597
著名	-9.58609
改善	-9.58789
挑	-9.58873
官员	-9.58878
达成	-9.58915
寻找	-9.58975
趣	-9.59136
周一	-9.59365
0.5	-9.59422
创业板	-9.59439
之中	-9.59462
主要是	-9.59509
毕竟	-9.59545
无论	-9.59562
1.2	-9.59596
我想	-9.59601
那样	-9.59688
驻	-9.59884
毕业	-9.59891
真实	-9.59922
培养	-9.60001
舒	-9.60018
格局	-9.60065
反应	-9.60124
主流	-9.60173
仓位	-9.6019
自动	-9.60373
尼康	-9.60411
一定的	-9.60569
迈	-9.60596
成熟	-9.6063
智能	-9.60798
打出	-9.60881
热点	-9.60899
邀请	-9.60915
于是	-9.60917
出售	-9.60979
强劲	-9.60989
成交量	-9.61009
禁	-9.61053
耳	-9.61056
CEO	-9.6108
变得	-9.61097
暂	-9.61231
冯	-9.61276
宫	-9.6129
07	-9.6138
IT	-9.61493
软	-9.61498
PC	-9.61543
捐	-9.61554
高尔夫	-9.61607
运营商	-9.61652
慢	-9.61662
祖	-9.61699
涉	-9.61735
检查	-9.61767
宾	-9.61778
耐	-9.61876
幸	-9.6191
饰	-9.61926
自身	-9.61928
虚	-9.61942
*	-9.61958
煤炭	-9.61987
划	-9.62022
漏	-9.62069
洲	-9.62086
科比	-9.62093
的原因	-9.62208
▁欢迎发表评论	-9.62305
两次	-9.62317
操	-9.62404
未能	-9.62432
润	-9.62463
坏	-9.62518
万股	-9.6255
赔	-9.62722
统一	-9.62736
律师	-9.62745
钢铁	-9.62758
th	-9.62813
押	-9.62864
公布的	-9.6288
混	-9.62932
夺	-9.62953
欢	-9.6297
肥	-9.63041
兑	-9.63073
VS	-9.63125
到底	-9.63125
妈妈	-9.63165
食品	-9.6328
湖	-9.63293
一条	-9.63307
阅读	-9.63346
耶	-9.63438
金融危机	-9.63479
02	-9.63487
留下	-9.63525
文件	-9.63535
原来	-9.63574
董事长	-9.63643
75	-9.63689
程序	-9.63746
el	-9.63779
睡	-9.63785
基地	-9.63822
股份有限公司	-9.6389
别人	-9.63908
▁昨日	-9.6399
冒	-9.64
让他	-9.64016
笔者	-9.64028
本身	-9.64062
满意	-9.64092
03	-9.64118
识	-9.64134
库存	-9.64207
晶	-9.64222
LED	-9.64233
医生	-9.64312
国安	-9.64334
电视剧	-9.64349
充满	-9.64356
落后	-9.64363
岸	-9.64377
采访时	-9.64395
艳	-9.64418
团购	-9.64435
配备	-9.64516
坛	-9.64526
47	-9.64533
最好的	-9.64713
映	-9.64752
等待	-9.64827
顺利	-9.64876
迹	-9.64931
变成	-9.65026
黑色	-9.65129
下半年	-9.65139
宜	-9.65238
营收	-9.65254
了解到	-9.65257
现实	-9.65259
行政	-9.653
收到	-9.6532
倾	-9.65322
不久	-9.65326
债务	-9.6533
欢迎	-9.6538
创业	-9.65392
力度	-9.65396
零售	-9.65397
▁主持人	-9.65413
逾	-9.65463
号码	-9.65545
短线	-9.65775
里面	-9.65895
旗	-9.659
开展	-9.65901
事实	-9.65934
窗	-9.65993
95	-9.66139
利好	-9.66158
打击	-9.66215
籍	-9.66241
基金经理	-9.6631
49	-9.66328
饮	-9.66375
舍	-9.66425
举办	-9.66426
推广	-9.66445
应对	-9.66459
遇到	-9.66533
焦点	-9.66595
篇	-9.66619
医药	-9.66645
大多数	-9.66686
质疑	-9.66687
1.3	-9.66688
出版	-9.66695
墙	-9.66752
赛后	-9.66783
细节	-9.66802
这也是	-9.66805
董	-9.66884
户型	-9.6689
开心	-9.66994
移	-9.67016
定位	-9.67021
候	-9.67029
2.0	-9.67042
社区	-9.67069
往往	-9.67082
说法	-9.67334
居民	-9.67353
威胁	-9.67376
觉	-9.67422
85	-9.67463
两名	-9.67558
超级	-9.67619
提供了	-9.67624
似	-9.67631
三年	-9.67663
漫	-9.67667
立即	-9.67669
给了	-9.67692
谨慎	-9.6774
有点	-9.67752
促进	-9.67822
电池	-9.67862
旁	-9.67882
优惠	-9.67938
这两	-9.68007
晚上	-9.68009
腿	-9.68055
购物	-9.68064
添	-9.6811
帖	-9.68149
腾讯	-9.68188
多个	-9.68296
一致	-9.68449
所谓	-9.68476
推进	-9.68485
女性	-9.68546
ur	-9.68574
一周	-9.68618
接到	-9.68699
可是	-9.68748
就可以	-9.68862
增速	-9.6887
总是	-9.68914
20%	-9.68945
新高	-9.68996
的议案	-9.69015
女孩	-9.6902
营业	-9.69029
58	-9.69098
航空	-9.69122
喝	-9.69316
公安	-9.69335
妇	-9.69347
不得	-9.69354
桶	-9.69415
上赛季	-9.69432
腰	-9.69448
突出	-9.69453
拨	-9.69459
76	-9.6947
沪指	-9.69522
接下来	-9.69608
逐	-9.69612
2005	-9.69613
灰	-9.69684
理由	-9.69825
高度	-9.69829
10%	-9.69901
占据	-9.69962
0.0	-9.70048
规则	-9.70064
点评	-9.70164
南京	-9.70249
周二	-9.70348
童	-9.70375
后市	-9.70404
予	-9.70424
回升	-9.7052
凭借	-9.70555
前往	-9.7059
裁	-9.70616
局面	-9.70622
上调	-9.70727
耀	-9.70729
1.6	-9.70749
电视台	-9.70833
篮网	-9.70861
阿森纳	-9.70878
造型	-9.70891
但他	-9.70929
ra	-9.70963
队伍	-9.71009
完善	-9.71077
战术	-9.71079
案件	-9.71125
重视	-9.7116
半年	-9.71185
本人	-9.71211
销量	-9.71217
较高	-9.7128
农业	-9.71298
0.3	-9.71343
访问	-9.71358
周三	-9.71415
累计	-9.71433
新增	-9.71455
闭	-9.7154
—	-9.71562
得到了	-9.71574
专门	-9.71597
就像	-9.71663
还会	-9.71666
奶	-9.71678
周四	-9.71679
争夺	-9.71755
忠	-9.71764
一定要	-9.71803
构	-9.71834
摄影	-9.71858
地震	-9.71882
态	-9.71897
波动	-9.71924
硕士	-9.71929
击败	-9.71945
感情	-9.71976
日上午	-9.7199
奥运	-9.7202
回答	-9.72024
带来的	-9.72027
网民	-9.72028
潘	-9.72054
医疗	-9.72058
祥	-9.72087
夺冠	-9.72102
意识	-9.72135
幻	-9.72145
新兴	-9.7217
婆	-9.72286
阿尔	-9.72335
缺乏	-9.72337
的确	-9.72338
融	-9.72387
机型	-9.72475
爱情	-9.72507
5000	-9.72511
丝	-9.7254
时期	-9.72543
ve	-9.72632
ac	-9.72636
珍	-9.72644
记录	-9.72658
1.4	-9.72721
最好	-9.72735
一块	-9.72736
个篮板	-9.72753
两位	-9.72775
编辑	-9.72798
主义	-9.72805
早盘	-9.72821
有限	-9.72826
进口	-9.72898
必要	-9.72902
贯	-9.72938
妙	-9.72968
高于	-9.73014
提醒	-9.73017
小幅	-9.73027
周期	-9.73033
暖	-9.73094
始终	-9.73126
恰	-9.73183
3.5	-9.73236
分辨率	-9.73295
欧盟	-9.73332
不管	-9.73371
谈判	-9.73448
的地方	-9.7345
看看	-9.73487
霸	-9.73615
否认	-9.73704
经理	-9.73712
把握	-9.73756
燕	-9.73785
粉	-9.7384
失误	-9.73878
频道	-9.73896
想要	-9.73906
信贷	-9.73975
手段	-9.73993
很有	-9.74009
伊朗	-9.74064
朝鲜	-9.74076
迎来	-9.74113
铝	-9.7412
磨	-9.74147
它们	-9.74201
表达	-9.74212
失去	-9.74241
枚	-9.74368
年龄	-9.74387
增强	-9.74635
流动性	-9.74703
激烈	-9.74758
97	-9.74831
2012	-9.74922
工商	-9.74937
币	-9.7499
统	-9.7506
总裁	-9.75116
暂时	-9.75121
日报	-9.75137
年初	-9.75158
耗	-9.75164
青年	-9.7529
尚未	-9.75292
周末	-9.75296
特殊	-9.7535
促销	-9.75379
澳大利亚	-9.7542
曹	-9.75437
总体	-9.75468
犯规	-9.75468
无论是	-9.75473
装修	-9.75576
播放	-9.75591
机制	-9.75608
差距	-9.75641
拖	-9.75658
感受	-9.75773
尼亚	-9.75776
卫视	-9.75778
这也	-9.75815
有很多	-9.75832
确	-9.76029
援	-9.76106
肯	-9.76109
不得不	-9.76117
足够	-9.76119
十年	-9.76144
色彩	-9.76208
一项	-9.76213
人气	-9.76214
us	-9.76218
就能	-9.76261
回来	-9.76336
不够	-9.76448
秘	-9.76492
丢	-9.76525
篮球	-9.7653
一季度	-9.76617
习惯	-9.76641
承诺	-9.76668
带动	-9.76676
估计	-9.76701
战胜	-9.76718
环比	-9.7676
奔	-9.76791
第一个	-9.76892
业内人士	-9.76905
下调	-9.7691
卫生	-9.77021
英超	-9.77028
传球	-9.77083
HD	-9.77162
不可能	-9.77207
画面	-9.77305
特色	-9.77314
0.4	-9.7734
济	-9.77343
厦	-9.77355
组图	-9.77358
沟通	-9.7741
广大	-9.77433
验	-9.77434
出现在	-9.77434
64	-9.77457
直到	-9.77469
生命	-9.77512
观察	-9.77526
参考	-9.77548
先后	-9.77584
发出	-9.77697
烧	-9.77808
指导	-9.77813
兄弟	-9.77837
之下	-9.77905
1.1	-9.77942
拜	-9.78008
射门	-9.78033
组成	-9.78037
猫	-9.78077
登记	-9.78183
怎样	-9.7821
碰	-9.78316
分别为	-9.78418
调控	-9.78439
理想	-9.7845
▁此外	-9.78514
陪	-9.78547
沪深	-9.78606
享	-9.78688
96	-9.78708
展示	-9.78774
还将	-9.78777
四川	-9.78847
鞋	-9.78957
净值	-9.78977
全年	-9.7899
影片	-9.79215
茨	-9.79235
依旧	-9.79258
大约	-9.79286
涛	-9.79292
本场比赛	-9.79387
的可能性	-9.79395
治疗	-9.79447
像素	-9.79449
做到	-9.79456
整合	-9.79502
名字	-9.79576
时报	-9.79576
甘	-9.79876
在一起	-9.79881
铺	-9.79949
悲	-9.79971
休息	-9.79986
闻	-9.7999
促	-9.8
事故	-9.80066
衡	-9.80204
赔偿	-9.80246
在今年	-9.80247
锁	-9.80298
1.8	-9.80302
严格	-9.80321
流通	-9.8035
承担	-9.80371
俄	-9.80379
献	-9.80537
跃	-9.80539
男篮	-9.80595
肖	-9.80654
放在	-9.80673
un	-9.80764
06	-9.80862
回家	-9.80877
2.3	-9.80972
汤	-9.8098
话题	-9.81014
此后	-9.81048
强烈	-9.81078
她们	-9.81245
0.6	-9.81251
感谢	-9.81255
以往	-9.8128
三大	-9.8129
理念	-9.81305
赛事	-9.81325
仙	-9.81345
担忧	-9.81346
俗	-9.81384
构成	-9.81409
剂	-9.8141
一步	-9.81413
申花	-9.81448
诗	-9.8156
获得了	-9.81563
原则	-9.81595
难度	-9.816
2.1	-9.81636
植	-9.81813
寿	-9.81813
几天	-9.81818
紫	-9.81879
外援	-9.81897
贸	-9.81929
乘	-9.81946
新股	-9.82021
0.7	-9.82064
斌	-9.82074
一系列	-9.82132
仿	-9.82139
兽	-9.8217
页	-9.8226
很多人	-9.82281
制定	-9.82361
共有	-9.82376
86	-9.82405
插	-9.82426
仪	-9.8243
增持	-9.82443
办公室	-9.8245
对象	-9.82456
高级	-9.82511
序	-9.82535
涨停	-9.82547
收于	-9.82562
盘中	-9.82585
君	-9.82598
设置	-9.82644
责	-9.82691
批准	-9.82776
代理	-9.82794
扩	-9.82795
带着	-9.82796
美联储	-9.8288
症	-9.8302
50%	-9.83026
尺寸	-9.83041
在此	-9.83059
沿	-9.83104
残	-9.83113
78	-9.83141
是不是	-9.83212
ce	-9.83234
胶	-9.8326
递	-9.83264
万人	-9.83266
堡	-9.83291
影像	-9.83291
儿童	-9.83459
捕	-9.83504
趋	-9.8352
▁the	-9.83526
中超	-9.83529
0.8	-9.83533
寒	-9.83541
挡	-9.83556
闹	-9.83589
了很多	-9.83595
芬	-9.83724
另一方面	-9.83772
忽	-9.83776
亮相	-9.8378
也很	-9.83793
复习	-9.83801
▁新浪科技讯	-9.83828
清晰	-9.83832
电力	-9.83877
取消	-9.83897
也可以	-9.84033
证实	-9.84043
携	-9.84083
房子	-9.8411
腾	-9.8413
ad	-9.84179
命中	-9.84187
爆发	-9.84246
廉	-9.84318
是什么	-9.84372
培训	-9.84385
姜	-9.84455
虽	-9.84467
工具	-9.84473
摇	-9.84481
粉丝	-9.84614
其它	-9.84641
中学	-9.84714
旺	-9.84723
手术	-9.84823
谋	-9.84886
1.7	-9.84914
360	-9.84978
小组	-9.84979
04	-9.84992
各地	-9.84993
la	-9.85004
扫	-9.85037
证监会	-9.85069
办理	-9.85131
卓	-9.85162
迅	-9.85279
斯坦	-9.85307
教授	-9.85335
欧元	-9.85357
技	-9.85417
嫌	-9.85431
国务院	-9.85433
此时	-9.85504
侠	-9.85511
平衡	-9.85522
搭载	-9.85526
寻	-9.85557
都没有	-9.85566
不太	-9.85588
伏	-9.85595
帝	-9.85607
毫	-9.85681
1.0	-9.85741
盈	-9.85744
忧	-9.85791
影视	-9.85805
平方米	-9.85863
这场	-9.85877
浮	-9.85908
损	-9.85957
轨	-9.85969
高层	-9.86009
回归	-9.86059
犯罪	-9.86096
伦敦	-9.86111
接触	-9.86166
主角	-9.86166
上场	-9.86201
追求	-9.8621
个交易日	-9.86231
董事	-9.86238
全场	-9.86247
宿	-9.86318
确保	-9.86358
怒	-9.86368
炒	-9.86438
两队	-9.86523
幸福	-9.86523
li	-9.8654
悦	-9.86553
产量	-9.86589
一段时间	-9.86609
投票	-9.86622
搭	-9.86628
个性	-9.86645
勤	-9.86706
担	-9.8673
屋	-9.86843
誉	-9.86857
玲	-9.86974
67	-9.87017
ir	-9.87019
总理	-9.87068
演出	-9.87084
家里	-9.87097
规范	-9.8713
愈	-9.87177
一张	-9.87236
地板	-9.87357
住房	-9.87384
达到了	-9.87387
欠	-9.87429
适应	-9.87475
开发商	-9.87485
英格兰	-9.87584
品质	-9.87675
房价	-9.87744
忍	-9.87837
基于	-9.87845
IPO	-9.87858
富士	-9.87872
诺基亚	-9.87897
中期	-9.87919
不想	-9.88069
分享	-9.88137
流入	-9.88151
就要	-9.88261
高位	-9.88274
掌握	-9.8834
篮板	-9.88381
是一种	-9.88401
兴趣	-9.88517
杂志	-9.88551
加快	-9.88614
才是	-9.88649
收费	-9.88656
赚	-9.88668
30%	-9.88764
累	-9.88817
武汉	-9.88818
快乐	-9.88836
周五	-9.88898
相同	-9.88931
美股	-9.88966
仔	-9.88987
公共	-9.89024
语言	-9.89037
ay	-9.89043
詹姆斯	-9.89096
观看	-9.89115
据悉	-9.89149
走出	-9.89234
iPhone	-9.89299
汇率	-9.89417
内线	-9.89472
多数	-9.89482
货币政策	-9.89534
湖南	-9.8958
杭州	-9.89583
此事	-9.89585
阿联	-9.89611
涉嫌	-9.89678
内置	-9.89684
柏	-9.8969
汪	-9.89721
召	-9.89845
迹象	-9.8985
财经	-9.89872
▁据悉	-9.89882
节能	-9.89889
沈	-9.89891
受益	-9.8992
羊	-9.89937
外界	-9.89958
熟	-9.89995
英特尔	-9.90009
复出	-9.90066
回报	-9.90125
In	-9.90258
育	-9.90293
短信	-9.90297
驱	-9.90299
惨	-9.90382
一部分	-9.90433
生物	-9.90458
一方面	-9.90567
牙	-9.90591
尝试	-9.9067
在接受	-9.90675
经纪人	-9.90695
央视	-9.90703
相应	-9.90823
传播	-9.90839
邦	-9.90903
搜	-9.90914
支球队	-9.90976
背景	-9.9098
:30	-9.91
过来	-9.91035
芳	-9.91081
引进	-9.91122
井	-9.91136
千万	-9.91146
题材	-9.91157
么	-9.91163
女人	-9.91196
集体	-9.9122
鲁能	-9.91269
2.8	-9.91299
退出	-9.9132
传闻	-9.91326
2.2	-9.91341
柜	-9.91373
下去	-9.91416
炒作	-9.91471
PE	-9.91477
加息	-9.91489
悬	-9.91507
0.9	-9.91517
机场	-9.91622
份额	-9.9164
大陆	-9.91681
丈夫	-9.91704
乎	-9.91712
懂	-9.91722
and	-9.91767
后者	-9.91864
发言人	-9.91872
中国移动	-9.91899
浓	-9.91899
开出	-9.91917
年代	-9.91941
TD	-9.91945
星期	-9.91967
梦想	-9.92109
昂	-9.92111
尖	-9.92132
处罚	-9.92134
郎	-9.92173
陷入	-9.92193
堪	-9.9225
复苏	-9.92332
环节	-9.92352
胸	-9.92413
一代	-9.92417
国米	-9.92476
本报	-9.92536
即便	-9.92545
公里	-9.92582
夏天	-9.92615
今后	-9.92628
利物浦	-9.92635
阿里巴巴	-9.92689
慧	-9.92699
120	-9.92708
玛	-9.92728
150	-9.92743
将继续	-9.92811
认购	-9.92875
液晶电视	-9.92892
飞机	-9.92994
私募	-9.92998
马上	-9.93033
意思	-9.93163
反对	-9.93196
900	-9.93218
复杂	-9.93256
梅西	-9.93286
监督	-9.93299
撤	-9.9336
日起	-9.9338
裕	-9.93414
警察	-9.93414
谈到	-9.93426
阿根廷	-9.93453
当日	-9.93489
对阵	-9.93491
数码相机	-9.9351
让我	-9.93551
姚	-9.93684
从事	-9.93686
提到	-9.93709
到期	-9.93768
2004	-9.9377
2.7	-9.93788
参赛	-9.93907
一件	-9.93926
一段	-9.94006
产能	-9.94079
老人	-9.94165
水泥	-9.94165
栋	-9.9417
浩	-9.94208
鸿	-9.94283
爷	-9.94327
仅为	-9.9437
仁	-9.94392
ent	-9.94407
流行	-9.94462
队长	-9.94501
心态	-9.94565
孟	-9.94615
辽宁	-9.94687
稀	-9.94689
赠	-9.94702
通讯	-9.94711
住宅	-9.94713
刷	-9.94765
艺人	-9.94783
芯片	-9.94864
有机会	-9.9502
终端	-9.95047
摄	-9.95063
互动	-9.95091
与此同时	-9.95121
听歌	-9.95165
il	-9.95179
募集	-9.95196
背后	-9.95208
让我们	-9.95209
律	-9.95222
坦	-9.95244
下载	-9.95304
牵	-9.95322
该股	-9.9535
始	-9.95362
签约	-9.95362
来源	-9.95499
喊	-9.95501
棒	-9.9551
朴	-9.95518
辅	-9.95535
英雄	-9.95556
侦	-9.95562
热门	-9.95575
是为了	-9.95619
人生	-9.95655
知情	-9.95757
敢	-9.95769
熟悉	-9.95786
身边	-9.95853
泉	-9.95856
莉	-9.95882
弃	-9.95913
同时也	-9.9593
颖	-9.95945
鼓励	-9.95979
印象	-9.96028
理论	-9.96105
被告	-9.96107
我们认为	-9.9612
胆	-9.96173
门将	-9.96191
华夏	-9.96206
农村	-9.96259
原本	-9.96343
77	-9.96518
维奇	-9.96604
考虑到	-9.96605
季后赛	-9.96637
沃尔	-9.96666
市值	-9.96695
cn	-9.96752
帽	-9.96802
遗憾	-9.96823
都要	-9.96862
须	-9.96869
遭到	-9.96869
89	-9.96905
▁1、	-9.96911
淘汰	-9.97036
荷兰	-9.97046
答案	-9.97055
反而	-9.97087
~	-9.97166
QQ	-9.97173
认可	-9.9725
察	-9.97333
各个	-9.97413
蛋	-9.97413
河南	-9.97427
邻	-9.97443
热情	-9.97454
偶	-9.97478
及其	-9.97593
设施	-9.97596
MB	-9.97598
鸟	-9.97645
效应	-9.9768
秦	-9.97809
1.9	-9.97938
刊	-9.97948
钻	-9.97976
好友	-9.9799
自主	-9.98013
参考价格	-9.98056
迁	-9.98059
工资	-9.98104
去年同期	-9.98106
实行	-9.98122
关心	-9.9817
▁中新网	-9.98187
填	-9.98189
释放	-9.98226
扮演	-9.9824
高兴	-9.98269
各大	-9.98296
▁2、	-9.98313
打算	-9.98344
魔术	-9.98373
亏	-9.98411
舞台	-9.98417
委会	-9.98444
部长	-9.98446
减持	-9.98464
凭	-9.98514
版本	-9.98594
国际米兰	-9.98683
锦	-9.98691
投篮	-9.98714
壁	-9.98795
很可能	-9.98822
地址	-9.98829
框	-9.98898
猪	-9.9891
彭	-9.98931
类型	-9.98945
南方	-9.98956
扑	-9.99025
市民	-9.99053
瓶	-9.99064
个赛季	-9.99082
战绩	-9.99094
服装	-9.99155
多种	-9.99264
声音	-9.99266
油价	-9.99319
加拿大	-9.9942
伸	-9.99444
深入	-9.99491
硬盘	-9.99499
公众	-9.99512
嘴	-9.99593
涵	-9.99628
估	-9.99747
平时	-9.9978
西部	-9.99835
总额	-9.99908
般	-9.99916
态势	-9.99918
大奖	-9.99918
装备	-9.99936
大赛	-9.99941
罗马	-10
新疆	-10
聘	-10.0001
甜	-10.0002
男人	-10.0006
面前	-10.001
岗	-10.0016
春节	-10.002
认真	-10.0026
小姐	-10.0035
获悉	-10.0037
我认为	-10.0038
陶	-10.0041
谊	-10.0041
旭	-10.0048
存储	-10.005
娘	-10.005
版权	-10.0052
女友	-10.0055
战斗	-10.0058
亨	-10.0058
展现	-10.0063
父	-10.0063
诊	-10.0063
将成为	-10.0075
距	-10.008
仍有	-10.009
第五	-10.0091
不妨	-10.0095
欧冠	-10.0097
提示	-10.0097
助攻	-10.0101
贷	-10.0104
TV	-10.0108
商城	-10.0108
司机	-10.0118
彩票	-10.0127
奖金	-10.0129
课程	-10.0129
每次	-10.0135
错误	-10.0136
否	-10.0136
都很	-10.0144
ge	-10.0147
恐	-10.0151
摘	-10.0153
寸	-10.0154
彻底	-10.0161
2.4	-10.0164
加速	-10.0166
详细	-10.0167
在这里	-10.0167
滨	-10.0178
权益	-10.0179
哭	-10.0181
哲	-10.0184
纹	-10.0188
盛大	-10.0189
一支	-10.0194
狗	-10.0199
繁	-10.0202
填报	-10.0217
嘉宾	-10.022
袭	-10.0222
都能	-10.0235
绿色	-10.0243
经销商	-10.0247
学位	-10.0252
车队	-10.0254
徒	-10.0269
昆	-10.0269
个百分点	-10.0272
午	-10.0275
世锦赛	-10.0282
正确	-10.0282
遍	-10.0288
查询	-10.0301
反复	-10.0304
账户	-10.0313
割	-10.0318
高开	-10.0321
月初	-10.0329
还能	-10.033
为此	-10.033
te	-10.0338
广泛	-10.0343
兹	-10.0345
6000	-10.0346
心情	-10.0353
亡	-10.0355
雅虎	-10.0358
离婚	-10.0372
硕	-10.0373
每股收益	-10.0374
胎	-10.0378
历史上	-10.0379
北京市	-10.0379
打开	-10.038
感兴趣	-10.0383
信号	-10.039
奋	-10.0394
颜色	-10.0404
民族	-10.0406
运动员	-10.0406
积分	-10.0413
贺	-10.0415
取得了	-10.0426
失败	-10.0427
肩	-10.0428
采购	-10.044
究竟	-10.0445
主持人	-10.0449
这场比赛	-10.0453
疯狂	-10.0478
允许	-10.0479
疾	-10.0481
沈阳	-10.0483
家电	-10.0487
柱	-10.0488
更高	-10.049
原因是	-10.0494
湾	-10.0497
效率	-10.0504
补充	-10.0508
收报	-10.051
新赛季	-10.0511
OL	-10.0513
永远	-10.0513
驾	-10.0515
况	-10.0519
困	-10.0536
初步	-10.054
覆盖	-10.054
周边	-10.0543
纵	-10.0544
维护	-10.0548
最重要的	-10.0551
▁新华网	-10.0556
现货	-10.0562
持股	-10.0569
磊	-10.057
毅	-10.0577
域	-10.0587
通常	-10.0595
听到	-10.0598
踪	-10.0599
连胜	-10.0599
袋	-10.0602
拉斯	-10.0603
逢	-10.0605
3.0	-10.0614
演唱会	-10.0631
旦	-10.0636
荡	-10.0646
楼市	-10.065
争议	-10.0657
为何	-10.0657
固定	-10.0664
例如	-10.0666
惠普	-10.0668
转型	-10.0677
陷	-10.0679
上证指数	-10.068
手续	-10.0682
醒	-10.0684
欧元区	-10.0687
拘	-10.069
踏	-10.0709
裂	-10.0718
截止	-10.0719
尽快	-10.0719
凌	-10.0719
吕	-10.0732
招商	-10.0741
鼓	-10.0742
琼	-10.0744
阳光	-10.0744
侯	-10.0744
一边	-10.0745
▁编辑点评	-10.075
袭击	-10.0752
锐	-10.0761
潜力	-10.0762
两天	-10.0775
泳	-10.0781
ter	-10.0781
应当	-10.0784
派出所	-10.0784
重量	-10.0788
裤	-10.0789
金牌	-10.0796
大家都	-10.0799
结束后	-10.0801
奖励	-10.0805
这一点	-10.0806
疲	-10.0807
泪	-10.0815
仅有	-10.082
装饰	-10.0821
大规模	-10.0829
低开	-10.083
图像	-10.0832
布朗	-10.0833
诱	-10.0833
总监	-10.0837
液	-10.0838
签订	-10.0841
首席	-10.0847
MP	-10.0851
动态	-10.0852
热火	-10.0857
设立	-10.0857
场景	-10.0858
小区	-10.086
截	-10.0862
理财	-10.0865
会员	-10.0867
上演	-10.0881
ha	-10.0884
媒体报道	-10.0889
壮	-10.0889
尤	-10.0889
寄	-10.089
琴	-10.0891
进步	-10.0898
事项	-10.0912
电器	-10.0913
在内的	-10.0915
整理	-10.0923
曼城	-10.0924
骂	-10.0931
群众	-10.0934
别墅	-10.0935
机械	-10.094
可谓	-10.0942
男友	-10.0944
竟然	-10.0948
瓜	-10.095
化工	-10.0954
建材	-10.0959
经济增长	-10.096
基本面	-10.096
泡	-10.0962
管理层	-10.0968
宠	-10.0971
降至	-10.0972
合适	-10.0981
Android	-10.0982
庞	-10.0984
而不是	-10.0992
著	-10.0994
观望	-10.1006
情况下	-10.101
业主	-10.101
▁3.	-10.1012
新加坡	-10.1018
AT	-10.1023
不满	-10.1028
矛盾	-10.1028
区间	-10.1028
白色	-10.1029
炮	-10.103
那里	-10.1031
直播	-10.1038
巨头	-10.104
审议	-10.1041
移民	-10.1045
房产	-10.105
募	-10.1058
辆	-10.1062
天气	-10.1073
彼	-10.1075
砍	-10.1078
停止	-10.1089
blog	-10.1091
楚	-10.1094
专辑	-10.1101
屡	-10.111
日凌晨	-10.1114
id	-10.1115
非法	-10.1115
sh	-10.112
评估	-10.112
缴	-10.1127
婚礼	-10.1137
毁	-10.1144
竟	-10.1147
盘面	-10.1149
无奈	-10.1152
>	-10.1156
不敢	-10.1156
明天	-10.1165
漂亮	-10.1174
逆	-10.1183
戒	-10.1188
强大的	-10.119
带领	-10.119
危	-10.1191
鹰	-10.1197
工厂	-10.1197
计算机	-10.1198
代言	-10.1199
Facebook	-10.1201
im	-10.1203
创下	-10.1207
超越	-10.1216
低迷	-10.1216
必然	-10.1217
尘	-10.1217
红色	-10.1219
坦言	-10.122
得知	-10.1224
选举	-10.1226
提交	-10.123
运作	-10.1232
COUNT	-10.1234
这项	-10.1235
武器	-10.1236
危险	-10.124
妮	-10.124
麻	-10.1241
平安	-10.1244
3.3	-10.1248
旋	-10.1252
聊	-10.1252
有利于	-10.1253
物业	-10.1258
收益率	-10.1261
纽	-10.1262
▁2.	-10.1265
陆续	-10.1265
三季度	-10.1269
暂停	-10.1275
颗	-10.1284
浏览	-10.1289
搬	-10.1291
宴	-10.1292
布局	-10.1292
鼎	-10.1293
由此	-10.13
壳	-10.1311
St	-10.1315
凶	-10.1319
进展	-10.132
雯	-10.1321
怀疑	-10.1326
准确	-10.133
很少	-10.1331
单反	-10.1333
思想	-10.1339
鑫	-10.1342
场均	-10.1355
桌	-10.1359
教育部	-10.1363
其次	-10.1367
综	-10.1367
参数	-10.1376
诉讼	-10.1378
上扬	-10.1382
栏	-10.1385
赛场	-10.1386
酬	-10.1387
歌手	-10.1396
节奏	-10.1398
传感器	-10.1399
打破	-10.1404
lo	-10.141
是一款	-10.1416
苗	-10.142
ot	-10.1423
中午	-10.1425
内存	-10.1428
争取	-10.1432
柔	-10.1452
厉	-10.1454
2.6	-10.1457
签署	-10.1458
主管	-10.1459
敲	-10.146
战争	-10.1469
对话	-10.147
道路	-10.1474
预算	-10.1474
ul	-10.1474
国债	-10.1477
扶	-10.1484
羽	-10.1487
辞	-10.1488
分配	-10.1491
两国	-10.1498
总结	-10.1499
认定	-10.15
II	-10.1503
易建联	-10.1503
vi	-10.1504
渡	-10.1507
梯	-10.1507
效力	-10.1507
俩	-10.1512
究	-10.1514
如果你	-10.1517
虑	-10.1518
毕业生	-10.1528
中关村	-10.1528
赶到	-10.1529
ut	-10.1535
支出	-10.1547
性价比	-10.1561
泄	-10.1561
申购	-10.157
批评	-10.1575
厨	-10.1589
IS	-10.1592
毕	-10.1597
年轻人	-10.1597
哪些	-10.1597
http	-10.1609
惑	-10.1612
主持	-10.1613
全力	-10.1616
▁1.	-10.1617
对抗	-10.1628
衣服	-10.1629
CDMA	-10.1637
随时	-10.1637
4.5	-10.1638
日常	-10.1643
否则	-10.1648
废	-10.1649
扭	-10.165
回忆	-10.1651
想象	-10.1651
储备	-10.1667
裙	-10.1668
数学	-10.1675
://	-10.1676
砖	-10.1682
径	-10.1683
Windows	-10.1687
社交	-10.1691
之所以	-10.1691
IM	-10.1692
午后	-10.1694
背景下	-10.1697
传出	-10.1699
兴奋	-10.1702
亿港元	-10.1704
播出	-10.1719
信用	-10.1721
劳动	-10.1726
市盈率	-10.1738
考验	-10.1742
鹿	-10.1746
高管	-10.1755
显示屏	-10.1757
芝	-10.1759
崔	-10.1761
试图	-10.1765
特征	-10.1767
虹	-10.1768
教师	-10.1769
链	-10.1771
ETF	-10.1774
短期内	-10.1774
麦克	-10.1776
物流	-10.1776
便宜	-10.1777
没能	-10.1778
村民	-10.1778
订单	-10.18
姿	-10.1805
葡萄牙	-10.1807
即可	-10.1814
■	-10.1816
石化	-10.1822
率先	-10.1825
顾问	-10.1825
3.2	-10.1826
牢	-10.1827
卖场	-10.1831
临时	-10.1835
转移	-10.1839
个小时	-10.1844
翔	-10.1844
同期	-10.1845
▁3、	-10.1845
授权	-10.1851
扩张	-10.1851
反击	-10.1857
CBA	-10.1863
青岛	-10.1864
赖	-10.1868
均价	-10.1872
氏	-10.1873
针	-10.1877
魏	-10.1882
4000	-10.1887
尤文	-10.1887
银行股	-10.189
鸡	-10.1892
发布会	-10.1915
机器	-10.1916
慈善	-10.1919
尊	-10.1921
翼	-10.1927
竞争力	-10.1929
大股东	-10.1934
ho	-10.1939
窄	-10.1942
不知	-10.1945
总决赛	-10.1945
呈	-10.1955
环球	-10.1956
竞技	-10.1956
操作系统	-10.1956
火箭队	-10.1961
依靠	-10.1961
违法	-10.1965
袁	-10.197
惜	-10.1972
见到	-10.1973
穆里尼奥	-10.1974
nd	-10.1983
创作	-10.1983
大豆	-10.1989
实验	-10.1993
公平	-10.2002
近年来	-10.2005
御	-10.2011
授	-10.2014
阅	-10.2014
扰	-10.2015
判决	-10.2018
联邦	-10.202
毫无	-10.2022
办公	-10.2025
来讲	-10.2025
浦	-10.2028
素质	-10.203
另一个	-10.2032
网络游戏	-10.2045
爆炸	-10.2047
各自	-10.2048
凯尔特人	-10.205
打电话	-10.2051
'	-10.2055
坎	-10.2056
顶级	-10.2057
获利	-10.2064
转变	-10.207
生意	-10.2073
滚	-10.2074
起诉	-10.2084
一辆	-10.2087
凤	-10.2088
拥	-10.2088
蒋	-10.2089
摄像头	-10.2091
拳	-10.2099
早已	-10.2101
2003	-10.2101
弟	-10.2106
薇	-10.2107
房屋	-10.2117
蕾	-10.2123
iPad	-10.2125
冲突	-10.2125
契	-10.2127
相当于	-10.2149
松下	-10.2153
时许	-10.2155
伤病	-10.2156
工艺	-10.2163
伤害	-10.2164
目标价	-10.2164
业内	-10.2164
高盛	-10.2174
没想到	-10.2178
转让	-10.2181
升至	-10.2192
铁路	-10.2194
权重股	-10.2195
遥	-10.2204
介入	-10.2205
饰演	-10.2206
博士	-10.2208
证据	-10.2214
狱	-10.2216
法庭	-10.2217
适当	-10.2222
绑	-10.2225
粮	-10.223
可见	-10.2231
见面	-10.2233
下半场	-10.2236
落实	-10.2237
看起来	-10.2247
陶瓷	-10.2252
劫	-10.226
劣	-10.2262
信任	-10.2264
负面	-10.2271
新能源	-10.2275
唯	-10.2282
资本市场	-10.2284
怨	-10.2285
酸	-10.229
辩	-10.2307
百万	-10.231
配套	-10.2312
仪式	-10.2322
次助攻	-10.2334
▁of	-10.2336
主演	-10.2337
j	-10.2338
ap	-10.2342
销售额	-10.2342
龙头	-10.2344
习	-10.235
级别	-10.236
娇	-10.2363
第三方	-10.2367
面试	-10.2371
今年以来	-10.2373
叹	-10.2377
修改	-10.2381
吹	-10.2381
低价	-10.2383
莎	-10.2389
各国	-10.239
览	-10.2393
纲	-10.2397
涌	-10.2408
ow	-10.2424
日均线	-10.2429
弄	-10.2432
运用	-10.2434
财富	-10.2438
独家	-10.2439
上半场	-10.244
拓	-10.2447
安装	-10.2464
释	-10.247
气氛	-10.2472
女排	-10.248
贝尔	-10.2482
开启	-10.2487
陕西	-10.2488
格式	-10.2492
运输	-10.2493
四个	-10.2495
传奇	-10.25
经济复苏	-10.2512
乳	-10.2513
本轮	-10.2523
予以	-10.2525
诸多	-10.2527
可惜	-10.254
检测	-10.2543
辈	-10.2557
思路	-10.2561
炸	-10.2571
输入	-10.2572
窃	-10.2574
紧缩	-10.2577
设计师	-10.2578
本届	-10.2578
驰	-10.258
执教	-10.2591
IC	-10.2602
没有任何	-10.2602
兆	-10.2602
侵	-10.2605
CPI	-10.2611
第二次	-10.2617
尸	-10.2625
鬼	-10.2628
居住	-10.263
北京时间	-10.2633
首轮	-10.2642
登陆	-10.2647
性格	-10.265
2.9	-10.265
教学	-10.2656
驾驶	-10.2682
灭	-10.2684
副总裁	-10.2688
担保	-10.2693
亮点	-10.2698
春晚	-10.2705
倍光学变焦	-10.2709
保留	-10.271
柳	-10.2713
技能	-10.2715
收获	-10.2723
舟	-10.2731
密切	-10.2736
异常	-10.2737
塑	-10.2746
奢	-10.2746
优先	-10.2748
3.6	-10.275
霆	-10.2756
婚姻	-10.2762
当地时间	-10.2767
依据	-10.2769
创意	-10.277
役	-10.2772
升值	-10.2772
飙	-10.2782
显著	-10.2782
协调	-10.2783
际	-10.2789
优质	-10.279
谭	-10.2797
发放	-10.2802
美女	-10.2806
偿	-10.281
业界	-10.2818
外围	-10.2819
扮	-10.2819
股指期货	-10.2822
收视	-10.2822
明白	-10.2823
乃	-10.2831
墨	-10.2832
拓展	-10.2837
走强	-10.2837
ISO	-10.2845
农民	-10.2846
茶	-10.2858
挫	-10.2858
棉	-10.2863
阿富汗	-10.2875
炉	-10.288
ab	-10.288
神秘	-10.2882
势头	-10.2888
赏	-10.2888
报警	-10.289
轰	-10.2901
公益	-10.2907
性感	-10.2907
南非	-10.2924
那种	-10.2932
锁定	-10.2933
聪	-10.2934
大概	-10.2941
戴尔	-10.2942
存款	-10.2943
标志	-10.2944
通道	-10.2947
IP	-10.2951
融合	-10.2957
漆	-10.2958
诸	-10.2963
影响力	-10.297
当晚	-10.298
中国足球	-10.298
恐怖	-10.2985
公园	-10.2988
纤	-10.299
悄	-10.2992
曝	-10.2994
琪	-10.2999
攀升	-10.3004
外形	-10.3008
记忆	-10.3019
偶像	-10.3022
球星	-10.3022
失望	-10.3028
执法	-10.3041
资讯	-10.3043
孤	-10.3043
错过	-10.3045
霞	-10.3046
津	-10.3047
第三季度	-10.3047
捧	-10.3053
相互	-10.3067
回调	-10.3069
堆	-10.3069
尤其	-10.3074
保罗	-10.3077
二十	-10.308
票房	-10.3083
祝	-10.3084
照顾	-10.3091
获取	-10.3092
婷	-10.3093
拔	-10.3096
娃	-10.3103
玻璃	-10.3105
晋级	-10.3111
炼	-10.3118
拦	-10.312
先进	-10.3124
东莞	-10.3131
指定	-10.3143
放松	-10.3145
转换	-10.3146
键盘	-10.315
容量	-10.315
较低	-10.3151
尊重	-10.3156
市场份额	-10.3156
理科	-10.3158
彻	-10.3162
阔	-10.3167
夸	-10.3171
锡	-10.3172
两种	-10.3172
学科	-10.3172
&	-10.3175
深刻	-10.3175
云南	-10.318
坤	-10.3181
摸	-10.319
骑	-10.3197
昨晚	-10.3197
蓄	-10.3215
空调	-10.3217
剧组	-10.3219
司法	-10.3221
乏	-10.3222
闲	-10.3224
放缓	-10.323
考察	-10.3238
国足	-10.3238
拜仁	-10.324
广角	-10.3243
差异	-10.3249
猜	-10.3249
房间	-10.325
秘密	-10.3253
3.8	-10.3258
回合	-10.3268
摊	-10.3273
署	-10.3277
宏观	-10.328
宽松	-10.329
注重	-10.3294
表面	-10.3297
上周五	-10.3313
聊天	-10.3315
围绕	-10.3316
臣	-10.3351
抖	-10.3351
岩	-10.3365
汽	-10.3375
挤	-10.3401
斥	-10.3406
丧	-10.3414
愤	-10.3422
瘦	-10.3447
闯	-10.3463
府	-10.3476
衫	-10.3498
尺	-10.3498
骏	-10.3506
卧	-10.3559
岭	-10.357
粗	-10.3576
策	-10.3583
赋	-10.3583
镑	-10.3614
鲍	-10.3628
桂	-10.3636
疼	-10.3636
鸣	-10.3638
池	-10.3653
履	-10.3665
鼠	-10.3683
甚	-10.3685
贤	-10.369
昊	-10.3699
貌	-10.3735
慰	-10.3738
柯	-10.3781
魂	-10.3784
垫	-10.3786
扳	-10.3789
吊	-10.3796
晋	-10.382
贫	-10.3833
爽	-10.3838
详	-10.3858
砸	-10.3867
邀	-10.387
妆	-10.3901
膜	-10.391
抬	-10.3912
q	-10.3918
滞	-10.3942
郁	-10.3963
逊	-10.3967
抄	-10.397
肃	-10.3985
楠	-10.4011
雇	-10.4012
吐	-10.4027
玮	-10.4076
龄	-10.4093
掩	-10.4096
培	-10.4098
裸	-10.4104
涂	-10.4122
劝	-10.4137
皆	-10.4156
喷	-10.4159
脏	-10.4163
胞	-10.4172
纠	-10.4188
串	-10.4195
堵	-10.421
乙	-10.4211
碎	-10.4226
茂	-10.4228
腹	-10.4273
彦	-10.4325
妈	-10.4328
奕	-10.4342
冻	-10.4355
键	-10.4363
盟	-10.4379
肤	-10.4391
旬	-10.4393
蜂	-10.4404
芯	-10.4428
啦	-10.4464
葛	-10.4467
□	-10.4502
蜜	-10.4542
铭	-10.4545
阶	-10.4549
译	-10.4551
桃	-10.4641
窝	-10.4654
擦	-10.4661
狼	-10.4689
够	-10.469
怡	-10.4694
夹	-10.4695
逸	-10.4701
妻	-10.4706
罢	-10.4725
嫁	-10.4757
飘	-10.4799
奉	-10.4809
衔	-10.4815
傲	-10.4822
慎	-10.4825
伍	-10.4828
删	-10.4848
吓	-10.4852
脂	-10.4871
孩	-10.4896
澄	-10.4898
●	-10.492
疫	-10.492
碑	-10.4928
粒	-10.4942
欺	-10.4983
挣	-10.4985
束	-10.4991
握	-10.5008
炎	-10.501
慕	-10.5029
杂	-10.5049
描	-10.5055
谐	-10.5082
谱	-10.509
穷	-10.5101
瘾	-10.5101
址	-10.512
婴	-10.5128
巩	-10.513
靓	-10.514
革	-10.5155
脉	-10.516
趁	-10.517
催	-10.5179
邱	-10.5196
肌	-10.5213
挥	-10.5216
姑	-10.5244
泛	-10.5247
荷	-10.5261
腐	-10.5271
佐	-10.5272
央	-10.5273
悍	-10.5273
冕	-10.5285
孕	-10.5293
符	-10.5319
挖	-10.5322
湘	-10.5368
峻	-10.5387
敦	-10.5393
盼	-10.5401
染	-10.5413
淘	-10.5414
埋	-10.542
伪	-10.5458
忌	-10.5459
岳	-10.5484
饱	-10.5494
荒	-10.5497
妥	-10.5498
=	-10.5527
沽	-10.5532
丑	-10.5543
狠	-10.5561
择	-10.558
醉	-10.5656
暑	-10.5656
～	-10.5668
炫	-10.5677
彬	-10.5683
闷	-10.569
旨	-10.5706
崇	-10.5711
揽	-10.5722
券	-10.5759
糊	-10.5766
帆	-10.5769
遵	-10.5784
盲	-10.5793
轴	-10.5806
萍	-10.584
烂	-10.5842
擅	-10.5848
颁	-10.5851
惯	-10.5895
掀	-10.5951
绩	-10.6004
撰	-10.6004
幽	-10.6019
悔	-10.6027
酿	-10.605
躲	-10.6106
犹	-10.6135
浴	-10.6142
圭	-10.6152
倡	-10.6162
衷	-10.6163
颈	-10.6169
拒	-10.617
★	-10.6181
恨	-10.6257
拐	-10.6277
肇	-10.6294
艰	-10.6298
膝	-10.6316
媒	-10.6322
吻	-10.6331
奎	-10.6333
仇	-10.6346
淫	-10.6346
鉴	-10.6357
吵	-10.6362
轩	-10.6427
硅	-10.6439
祸	-10.6485
摔	-10.6507
哦	-10.6513
浅	-10.6517
匹	-10.6574
盒	-10.658
臂	-10.6591
烦	-10.6608
诈	-10.6609
脆	-10.6623
绕	-10.6652
捉	-10.6655
娟	-10.6657
罕	-10.6665
谦	-10.6679
荐	-10.6693
颜	-10.6711
污	-10.6711
碍	-10.6749
瓷	-10.6753
氧	-10.6778
屈	-10.6798
析	-10.68
轿	-10.6808
坠	-10.683
垂	-10.684
萧	-10.6856
滋	-10.6875
僵	-10.69
覆	-10.6901
侣	-10.6904
夕	-10.691
弊	-10.692
孝	-10.6921
坡	-10.6949
竹	-10.6952
☆	-10.6955
眠	-10.6961
函	-10.6963
噪	-10.6969
缝	-10.6979
莲	-10.6981
斜	-10.6987
络	-10.6989
凉	-10.6997
佣	-10.701
倪	-10.7011
挽	-10.7031
溢	-10.7045
薛	-10.7047
厘	-10.7058
纱	-10.707
馨	-10.7084
尹	-10.709
锌	-10.7091
幼	-10.7101
胖	-10.7109
磁	-10.7116
衍	-10.7135
癌	-10.7147
呆	-10.7153
碧	-10.7157
茅	-10.718
啸	-10.7193
宪	-10.7227
腻	-10.7229
帐	-10.7248
锂	-10.7263
珊	-10.7265
辣	-10.7275
勃	-10.7276
唤	-10.7287
熙	-10.7289
坊	-10.7314
抚	-10.7349
抑	-10.7353
贩	-10.7353
苑	-10.7357
倩	-10.736
叔	-10.7361
凸	-10.7369
乒	-10.7448
昨	-10.7451
嫩	-10.7471
汗	-10.7478
剪	-10.7497
搏	-10.7511
撼	-10.7524
盯	-10.7528
悠	-10.7565
歇	-10.7571
翁	-10.7599
悉	-10.7602
惧	-10.7635
湿	-10.7651
吞	-10.7666
辱	-10.77
盐	-10.7704
旱	-10.7706
昔	-10.7745
叉	-10.7788
贪	-10.7799
殷	-10.7806
赤	-10.7808
殴	-10.7815
概	-10.7816
馈	-10.782
朵	-10.7878
亩	-10.7879
爬	-10.7892
驶	-10.7926
惹	-10.7952
仕	-10.7997
鼻	-10.8077
恼	-10.8077
俐	-10.8081
磅	-10.8088
撒	-10.8096
奸	-10.8185
披	-10.8214
俱	-10.8214
陌	-10.8216
狮	-10.8248
朋	-10.8254
宅	-10.8259
骚	-10.8263
滩	-10.8277
痕	-10.8293
督	-10.8299
惟	-10.8303
淑	-10.8304
泥	-10.8305
彰	-10.8315
匆	-10.8321
澜	-10.8356
菌	-10.837
囊	-10.8371
阁	-10.8385
呵	-10.8392
匿	-10.8396
贿	-10.8398
册	-10.8403
仲	-10.8417
椅	-10.8422
俞	-10.8431
勾	-10.8434
慨	-10.8464
迄	-10.8477
邵	-10.8506
郝	-10.8512
疏	-10.8518
筑	-10.8518
眉	-10.8526
锅	-10.8543
滴	-10.8551
仰	-10.8551
舰	-10.8554
辰	-10.8561
盎	-10.8578
渔	-10.8584
骄	-10.8604
猎	-10.8612
柴	-10.8617
炜	-10.8633
躺	-10.8637
渝	-10.864
@	-10.8642
铅	-10.866
冈	-10.8677
贬	-10.8678
媛	-10.868
凝	-10.8693
皓	-10.8694
•	-10.8698
咏	-10.8703
厄	-10.8704
绍	-10.872
匪	-10.872
崩	-10.8732
挪	-10.8748
潇	-10.876
淋	-10.8774
拾	-10.8784
腕	-10.8814
斑	-10.8829
崛	-10.883
缠	-10.8841
廖	-10.885
绘	-10.8856
枝	-10.8922
衬	-10.8922
虫	-10.8948
叙	-10.8957
邹	-10.8995
蓉	-10.9002
织	-10.9008
<	-10.9018
萌	-10.9034
障	-10.9048
廷	-10.9078
妖	-10.908
惩	-10.9123
瑟	-10.9145
碳	-10.9147
辖	-10.9166
雕	-10.9174
牧	-10.9194
凳	-10.9205
咬	-10.921
凑	-10.9219
罩	-10.9225
讶	-10.9226
涅	-10.9235
奈	-10.9252
溪	-10.9263
骤	-10.9327
哨	-10.9362
尝	-10.9366
弯	-10.9389
槽	-10.9401
喻	-10.9413
肚	-10.9415
庸	-10.9434
肿	-10.9487
悟	-10.9493
叠	-10.9538
逛	-10.9541
弘	-10.9548
玄	-10.9549
昏	-10.9554
谍	-10.9568
巢	-10.9569
滥	-10.9579
莹	-10.9581
傅	-10.9584
晃	-10.9629
滕	-10.9629
弧	-10.9631
谣	-10.9653
陵	-10.971
洽	-10.9719
笼	-10.9729
遂	-10.9738
驳	-10.9755
纷	-10.976
侈	-10.9783
溃	-10.979
晴	-10.9811
韵	-10.9817
粤	-10.9829
郅	-10.983
撑	-10.9841
蔓	-10.9842
【	-10.9843
嘛	-10.9853
$	-10.9872
顽	-10.9879
疯	-10.9882
斩	-10.9904
奏	-10.9929
巾	-10.9943
巅	-10.9971
戚	-10.9977
辟	-10.9998
颠	-11.0008
滤	-11.0046
媳	-11.0098
踩	-11.0136
誓	-11.0141
泼	-11.0143
翠	-11.0151
稻	-11.0156
己	-11.018
娱	-11.0194
斤	-11.0205
麟	-11.0216
淀	-11.0227
芒	-11.0234
努	-11.0245
翰	-11.0252
啤	-11.0257
呀	-11.0266
沸	-11.0282
靴	-11.029
胃	-11.0297
掏	-11.0298
艇	-11.0304
甩	-11.0308
墓	-11.0309
赁	-11.0316
肝	-11.0331
烤	-11.0351
循	-11.0357
尿	-11.0397
铲	-11.0404
愉	-11.0404
荧	-11.0407
迭	-11.0418
郊	-11.0429
傻	-11.0432
辨	-11.0434
侨	-11.0467
扔	-11.0469
螺	-11.0471
弈	-11.0482
咱	-11.0521
蝶	-11.0525
詹	-11.0527
衰	-11.0546
蛮	-11.0562
箭	-11.0563
瑜	-11.0565
励	-11.057
卿	-11.0573
奠	-11.0616
睿	-11.0633
疗	-11.0639
晖	-11.0648
卸	-11.0653
扯	-11.0695
肠	-11.0754
啥	-11.0758
卜	-11.078
爸	-11.0781
冶	-11.0805
勋	-11.082
沟	-11.0838
寂	-11.0845
渗	-11.0895
琦	-11.0896
遮	-11.0902
谎	-11.0906
蕴	-11.0986
睹	-11.1006
谨	-11.1017
兔	-11.103
钓	-11.1047
暨	-11.1065
躁	-11.1068
坑	-11.1072
蔚	-11.1075
羡	-11.1076
玫	-11.1138
仗	-11.1151
闫	-11.1151
抹	-11.1182
厌	-11.1217
脖	-11.1224
粹	-11.1239
愁	-11.1259
瞩	-11.1306
淇	-11.1319
峡	-11.133
龚	-11.134
剥	-11.1359
厕	-11.1378
辽	-11.1414
削	-11.143
殖	-11.1436
炭	-11.145
攀	-11.145
恤	-11.1504
坪	-11.1513
碟	-11.1526
婉	-11.1566
饼	-11.1634
勉	-11.1691
侃	-11.1696
惕	-11.1697
遏	-11.1705
甄	-11.1716
葡	-11.1719
寺	-11.1724
秽	-11.1731
哀	-11.1741
逝	-11.1756
晕	-11.1781
羞	-11.1796
艘	-11.1809
毯	-11.1816
雾	-11.1821
葬	-11.1832
耕	-11.1855
刮	-11.1901
棕	-11.1904
璐	-11.1927
耍	-11.1934
腔	-11.197
蔬	-11.1991
汶	-11.1994
辐	-11.2029
肆	-11.2039
钩	-11.2065
蛇	-11.2074
彤	-11.2082
瑰	-11.2098
钉	-11.2099
扇	-11.2111
勘	-11.2117
宙	-11.219
剔	-11.2203
晒	-11.2232
捡	-11.2264
藤	-11.2279
塌	-11.2308
盆	-11.2332
钦	-11.234
糕	-11.2361
筒	-11.2368
聂	-11.239
铃	-11.2435
蓬	-11.2435
蔽	-11.246
筋	-11.2523
拯	-11.2535
砂	-11.2544
洒	-11.2547
歉	-11.2552
舌	-11.2598
叛	-11.264
酝	-11.2645
榨	-11.2649
粘	-11.2671
裔	-11.2678
秉	-11.2698
妍	-11.2708
遣	-11.2711
竭	-11.272
霜	-11.2722
掘	-11.2736
绵	-11.2758
浑	-11.2792
筐	-11.2806
昕	-11.2815
纺	-11.2827
袖	-11.2842
瑶	-11.2851
莓	-11.2875
蒸	-11.2888
漂	-11.2894
谅	-11.2906
灌	-11.291
汁	-11.2925
绳	-11.2949
黛	-11.2957
诠	-11.296
晤	-11.2962
塘	-11.2968
肋	-11.2973
鹤	-11.2973
熬	-11.2992
钮	-11.301
愧	-11.3013
愚	-11.3023
茫	-11.3036
碗	-11.305
爵	-11.3058
膀	-11.3062
询	-11.3072
⊙	-11.3085
苍	-11.3086
矩	-11.3088
棍	-11.3093
焕	-11.3094
屠	-11.3094
脾	-11.3104
冤	-11.3122
渊	-11.3125
浙	-11.3136
漠	-11.3148
徕	-11.3158
讳	-11.317
韧	-11.3171
灿	-11.3171
朔	-11.3196
讽	-11.3199
措	-11.3213
棚	-11.3216
乖	-11.3257
酋	-11.3312
徊	-11.3317
徘	-11.3325
泊	-11.3334
谜	-11.3355
扁	-11.3427
肢	-11.3441
刃	-11.3451
兄	-11.3464
廊	-11.3476
肺	-11.3492
浆	-11.3508
逗	-11.3548
懈	-11.3563
怜	-11.358
碌	-11.3587
镁	-11.3663
俏	-11.3708
珀	-11.3723
慌	-11.3749
胀	-11.3785
裹	-11.3786
括	-11.3792
殊	-11.3807
姨	-11.3819
佑	-11.3828
烨	-11.3868
挨	-11.3891
曦	-11.3911
巷	-11.3925
虐	-11.3953
垒	-11.3962
贞	-11.3973
盾	-11.3996
菱	-11.3999
喀	-11.4021
鄂	-11.4021
璇	-11.4033
歹	-11.4035
殿	-11.4041
彪	-11.4057
贼	-11.4064
渣	-11.4071
桐	-11.4105
瞄	-11.4112
慈	-11.4115
茜	-11.4132
畏	-11.4147
捞	-11.4149
厢	-11.415
霄	-11.4156
靖	-11.419
°	-11.4199
→	-11.4214
撕	-11.4216
甸	-11.4254
闸	-11.4263
霖	-11.4269
犀	-11.4282
沛	-11.4304
雀	-11.4329
橙	-11.4344
靡	-11.435
坝	-11.4424
昭	-11.4439
帷	-11.4487
嵌	-11.4491
鞍	-11.4491
沦	-11.4495
豹	-11.4497
齿	-11.451
恭	-11.4531
洙	-11.4542
瞒	-11.4546
捅	-11.4549
媚	-11.4597
舜	-11.4599
痴	-11.4617
傍	-11.4623
浸	-11.4732
赎	-11.4742
嘘	-11.4761
伐	-11.4766
郜	-11.4772
冉	-11.4784
嘲	-11.4786
宛	-11.4805
犬	-11.4815
缆	-11.4825
耻	-11.4869
阐	-11.4875
邪	-11.4875
亭	-11.49
渤	-11.4912
潭	-11.4971
阮	-11.5042
钞	-11.5046
敞	-11.5084
敛	-11.5095
溜	-11.5121
汀	-11.5146
咒	-11.5154
沾	-11.5177
械	-11.5216
芭	-11.5222
祭	-11.5232
壤	-11.5234
丛	-11.524
宵	-11.524
狄	-11.5242
巍	-11.5248
跻	-11.5258
埔	-11.5289
蟹	-11.5291
杉	-11.5293
钰	-11.5299
巫	-11.5319
舶	-11.5321
懒	-11.5321
瘫	-11.5327
拢	-11.5366
镐	-11.537
捆	-11.5374
鹅	-11.5378
磋	-11.5378
踝	-11.539
搁	-11.5405
丘	-11.5419
穴	-11.5444
仑	-11.5456
魁	-11.5467
杏	-11.5475
弥	-11.5493
桩	-11.5494
枫	-11.5506
蚀	-11.5523
荆	-11.5531
橡	-11.5604
漓	-11.5604
鲨	-11.5608
钥	-11.5614
匙	-11.5642
袍	-11.5667
瞻	-11.5667
翘	-11.5673
肪	-11.5678
肾	-11.5692
寥	-11.5707
乾	-11.5707
饶	-11.5724
夷	-11.5731
佼	-11.5739
狭	-11.5745
蒲	-11.5747
臭	-11.5771
佬	-11.5784
钧	-11.5852
饲	-11.5891
梳	-11.5899
茵	-11.5904
柄	-11.591
瘤	-11.5932
绮	-11.5949
诀	-11.5949
鸭	-11.5986
掷	-11.6001
捏	-11.6025
腺	-11.6049
梨	-11.6056
寞	-11.6065
谴	-11.6087
阱	-11.6098
罐	-11.6109
辜	-11.6173
禅	-11.6193
淮	-11.6199
跪	-11.6231
○	-11.6287
寓	-11.63
寨	-11.6303
炬	-11.6323
郡	-11.6338
煮	-11.6345
哄	-11.6377
缉	-11.6381
刹	-11.641
瀚	-11.642
剖	-11.6424
溯	-11.6433
粕	-11.644
锤	-11.6456
娅	-11.6461
婕	-11.6474
匈	-11.6497
芸	-11.6502
卦	-11.652
蠢	-11.655
趟	-11.6559
允	-11.6599
缔	-11.6612
肘	-11.6617
燥	-11.6617
佟	-11.6643
阎	-11.6652
幢	-11.6652
绒	-11.667
嘱	-11.6692
锈	-11.6708
∶	-11.6717
邢	-11.6734
耿	-11.6743
宰	-11.6748
帧	-11.6764
祈	-11.6778
袜	-11.6778
睁	-11.6823
魄	-11.683
憬	-11.6833
舱	-11.6844
菊	-11.6852
灶	-11.6863
憧	-11.6873
涩	-11.6875
蛙	-11.6878
帘	-11.6885
悼	-11.693
镖	-11.6933
逻	-11.6949
扛	-11.6952
淳	-11.6956
哑	-11.6983
矮	-11.6992
牟	-11.6995
隙	-11.7004
丙	-11.7009
噩	-11.7024
庚	-11.7031
湛	-11.7104
霉	-11.7131
苛	-11.7138
焰	-11.718
歧	-11.7191
喘	-11.7206
怎	-11.7212
唇	-11.7214
烯	-11.7221
屯	-11.7221
兜	-11.7224
拭	-11.7224
裴	-11.7229
喂	-11.7231
沧	-11.7231
猴	-11.7241
棵	-11.7251
贡	-11.7253
醇	-11.7253
榈	-11.7261
缅	-11.7266
摧	-11.7273
窦	-11.7293
萄	-11.7315
澡	-11.7325
菁	-11.7328
#	-11.7348
绚	-11.736
楷	-11.7363
崭	-11.7383
枯	-11.7388
醛	-11.739
绰	-11.7413
觅	-11.7415
杭	-11.7417
涯	-11.7418
壹	-11.7423
铸	-11.7438
惫	-11.7453
丸	-11.7476
炳	-11.7476
萝	-11.7483
渠	-11.7491
钛	-11.7521
咸	-11.7524
揣	-11.7529
筛	-11.7539
崎	-11.7549
颓	-11.7587
忆	-11.7596
株	-11.761
囚	-11.7634
榄	-11.7654
纬	-11.7724
嚣	-11.7732
妃	-11.7757
姬	-11.776
乞	-11.7765
茹	-11.777
辑	-11.7782
儒	-11.7799
琢	-11.7825
囤	-11.783
饿	-11.7838
锣	-11.7851
斐	-11.787
缀	-11.7888
髓	-11.7891
狐	-11.7933
舅	-11.7978
琐	-11.7989
帜	-11.7991
俪	-11.8007
硫	-11.8045
曙	-11.8045
魅	-11.806
辙	-11.8066
俨	-11.8066
娶	-11.8077
↑	-11.8077
搅	-11.809
碱	-11.8101
赃	-11.8104
毋	-11.8109
枢	-11.8136
茄	-11.8136
垮	-11.816
弦	-11.8193
庙	-11.8231
恳	-11.8233
耽	-11.8239
钊	-11.8244
戛	-11.8247
冀	-11.828
匠	-11.8285
樊	-11.8332
鳄	-11.8335
卵	-11.8346
橄	-11.8374
娴	-11.8376
芙	-11.8398
寡	-11.8401
岚	-11.8432
倦	-11.8451
纶	-11.8454
疆	-11.8457
谓	-11.8472
鞭	-11.8479
隅	-11.8502
尧	-11.8532
糟	-11.8535
壶	-11.8549
臀	-11.858
竖	-11.8617
伞	-11.862
衅	-11.8625
蹲	-11.8645
韶	-11.8657
膨	-11.8662
轶	-11.8668
畴	-11.8679
爹	-11.8705
岑	-11.8711
咋	-11.8742
吼	-11.8745
擒	-11.8745
翅	-11.8771
绪	-11.8775
嫂	-11.8785
菅	-11.8788
幂	-11.88
擂	-11.8808
镶	-11.8811
豫	-11.8825
窜	-11.8825
柬	-11.8834
捂	-11.8852
涤	-11.8884
屁	-11.8904
锯	-11.8927
鲸	-11.8933
佘	-11.8992
勿	-11.9045
稽	-11.9048
骆	-11.9063
翟	-11.9065
歪	-11.9101
梓	-11.9125
甫	-11.9128
蝉	-11.9179
袂	-11.9221
奴	-11.9245
浒	-11.9251
暇	-11.9257
烫	-11.9308
昧	-11.9323
倚	-11.9354
汹	-11.9372
臻	-11.9439
绽	-11.9449
咪	-11.9452
禾	-11.9455
黯	-11.9464
泌	-11.9476
钾	-11.948
泣	-11.952
婧	-11.9551
倘	-11.956
诛	-11.9576
禹	-11.9591
沮	-11.9613
蜗	-11.9635
羁	-11.9651
嵩	-11.9663
氨	-11.9676
雁	-11.9736
玻	-11.9745
晟	-11.9749
伺	-11.9787
咽	-11.9799
笨	-11.9819
顷	-11.9838
屹	-11.9838
姗	-11.9854
穗	-11.9889
蝴	-11.9905
掐	-11.9908
猩	-11.995
笛	-11.9953
硝	-11.9957
孚	-11.996
豁	-11.997
聆	-11.9976
诵	-11.9976
毙	-11.9996
匀	-12.0018
攒	-12.0018
旎	-12.0058
蕊	-12.0061
蛛	-12.009
氯	-12.0107
蝎	-12.0107
僧	-12.012
绊	-12.013
酱	-12.0143
喉	-12.0153
皱	-12.0163
α	-12.0163
萃	-12.0166
凹	-12.0173
↓	-12.0183
樱	-12.0196
婿	-12.0226
焚	-12.0232
臧	-12.0239
蜡	-12.0239
诞	-12.024
痪	-12.0269
禧	-12.0279
颂	-12.0282
崖	-12.0329
妞	-12.034
媲	-12.0366
辗	-12.039
炙	-12.0397
膏	-12.041
棱	-12.0451
枕	-12.0455
杠	-12.046
溶	-12.0471
哗	-12.0475
阪	-12.0505
敖	-12.0506
秤	-12.0512
娥	-12.0519
煎	-12.0526
绣	-12.054
寝	-12.0547
隶	-12.0547
煞	-12.056
丈	-12.0575
芦	-12.0584
铮	-12.0588
矢	-12.0588
诡	-12.0591
嗓	-12.0595
龟	-12.0598
梭	-12.0605
缸	-12.0609
挚	-12.0612
烁	-12.0664
侮	-12.0668
籽	-12.0668
窥	-12.0668
卑	-12.0678
烹	-12.0681
滔	-12.072
萱	-12.0723
蜀	-12.0766
痒	-12.0783
徽	-12.0796
烛	-12.0836
吾	-12.0875
簿	-12.0886
岂	-12.0889
栖	-12.09
窘	-12.0907
泻	-12.0943
矫	-12.0967
撇	-12.0975
焱	-12.0985
藉	-12.1003
袱	-12.101
俯	-12.101
闽	-12.1039
闵	-12.1039
栽	-12.105
捍	-12.1054
蓓	-12.1065
侄	-12.1101
祁	-12.1112
饥	-12.1145
妨	-12.1188
镀	-12.121
暧	-12.1214
髦	-12.1236
溺	-12.124
磕	-12.1262
煜	-12.1288
嘟	-12.1306
醋	-12.1317
譬	-12.1325
黏	-12.1332
蹄	-12.1362
渴	-12.1364
殡	-12.1388
膊	-12.1407
矛	-12.1407
跷	-12.1482
驴	-12.1486
挟	-12.1527
脊	-12.1558
狙	-12.1561
俭	-12.1577
|	-12.1577
浇	-12.1588
鸠	-12.1592
磷	-12.1607
伽	-12.1615
麒	-12.1615
抉	-12.1622
胺	-12.1634
禽	-12.1676
缪	-12.1746
竣	-12.1753
鸽	-12.1788
瑛	-12.1796
蔗	-12.1831
抨	-12.1839
稚	-12.1842
淹	-12.1843
涡	-12.185
◆	-12.1859
亟	-12.189
灏	-12.1945
赂	-12.1965
咎	-12.1988
谤	-12.1992
堤	-12.2
汝	-12.2008
诟	-12.2012
荫	-12.2016
隧	-12.2028
虞	-12.2036
琛	-12.2044
篷	-12.2056
轧	-12.206
拽	-12.2076
渺	-12.2088
咕	-12.212
韬	-12.2156
诽	-12.2164
辄	-12.2176
虾	-12.2189
趴	-12.2193
煌	-12.22
铎	-12.2201
挠	-12.2205
胳	-12.2213
熠	-12.2213
陋	-12.2225
铉	-12.2229
弓	-12.2233
窍	-12.2278
絮	-12.2278
叮	-12.229
檀	-12.2294
蹭	-12.2298
拇	-12.2303
扼	-12.2323
斧	-12.2323
椎	-12.2331
椒	-12.2335
畔	-12.2356
鞠	-12.2364
昱	-12.2377
隋	-12.2401
颐	-12.2426
诫	-12.2455
乍	-12.2463
屑	-12.2505
鸦	-12.2526
绸	-12.2543
蹦	-12.2551
铀	-12.2619
枉	-12.2623
翡	-12.2635
禄	-12.2648
踊	-12.2652
绅	-12.2665
拱	-12.2716
蝠	-12.272
橘	-12.2729
厮	-12.2733
冥	-12.2742
戟	-12.2798
亥	-12.2802
炯	-12.2815
酯	-12.2823
蚁	-12.2823
棠	-12.2828
刁	-12.2832
喧	-12.2836
妄	-12.2841
熔	-12.2845
奚	-12.2853
潍	-12.2901
憋	-12.291
桦	-12.291
拷	-12.291
睛	-12.2912
撬	-12.2923
扒	-12.2936
蒜	-12.2936
榕	-12.2954
桓	-12.2958
猝	-12.2958
淼	-12.2997
僻	-12.3006
腥	-12.3024
蹿	-12.3028
娄	-12.3028
慑	-12.3054
廓	-12.3076
坯	-12.309
荃	-12.3094
蹊	-12.3099
缚	-12.3112
屿	-12.3134
熏	-12.3161
喇	-12.3165
镍	-12.3174
珂	-12.3179
呐	-12.3183
劈	-12.3206
窑	-12.3214
蝙	-12.3268
岌	-12.3268
匮	-12.3282
哇	-12.3282
榆	-12.3291
嫣	-12.3296
荼	-12.3341
畜	-12.3345
凿	-12.3345
绷	-12.3382
宕	-12.3396
蜕	-12.3437
峥	-12.3473
瞧	-12.3478
祺	-12.3478
炽	-12.3496
陡	-12.352
蹈	-12.3551
瑾	-12.3561
熄	-12.3566
苯	-12.3589
嗅	-12.3603
榻	-12.365
坷	-12.3664
缤	-12.3664
揪	-12.3706
翩	-12.3711
芽	-12.3725
珑	-12.3725
葱	-12.3749
濒	-12.3753
恺	-12.3758
氓	-12.3768
糙	-12.3786
庾	-12.382
竿	-12.3848
晏	-12.3853
栩	-12.3858
樟	-12.3858
萎	-12.3866
敷	-12.3872
酌	-12.3887
噱	-12.3887
铂	-12.3916
丫	-12.3925
棘	-12.3949
颤	-12.3983
洼	-12.3983
亵	-12.3998
旷	-12.4022
祷	-12.4022
姥	-12.4027
堕	-12.4046
烘	-12.4071
骁	-12.409
呕	-12.4095
羯	-12.4124
赐	-12.4124
阀	-12.4159
痊	-12.4159
霾	-12.4174
窖	-12.4179
耘	-12.4184
惋	-12.4198
瞬	-12.423
蕉	-12.4233
闺	-12.4268
灼	-12.4268
孜	-12.4273
麾	-12.4283
瑕	-12.4288
猥	-12.4288
逞	-12.4293
咧	-12.4303
吝	-12.4303
兖	-12.4323
泵	-12.4328
沁	-12.4333
哮	-12.4343
嘿	-12.4353
睦	-12.4378
襟	-12.4393
寇	-12.4393
漾	-12.4413
暮	-12.4418
迥	-12.4424
瞎	-12.4434
氢	-12.4439
捣	-12.4444
酣	-12.4474
贱	-12.449
坟	-12.45
阜	-12.4525
窟	-12.4525
氟	-12.4536
觑	-12.4541
兢	-12.4561
岐	-12.4566
渲	-12.4576
堰	-12.4577
饪	-12.4587
妒	-12.4587
妩	-12.4587
芹	-12.4597
嘻	-12.4612
锵	-12.4638
玺	-12.4644
峙	-12.4659
畸	-12.468
剿	-12.4685
卉	-12.4685
悚	-12.469
橱	-12.4695
夭	-12.4695
颅	-12.4695
舵	-12.4711
庐	-12.4742
憾	-12.4768
粥	-12.4768
玖	-12.4768
蜘	-12.48
疤	-12.4816
籼	-12.4826
掠	-12.4826
珞	-12.4847
慷	-12.4863
汕	-12.4895
孰	-12.4927
膺	-12.4932
铐	-12.4975
抒	-12.4991
姻	-12.5025
佰	-12.5029
寰	-12.5029
侥	-12.5077
槟	-12.5077
灞	-12.5142
烙	-12.5142
嫖	-12.5153
栗	-12.5153
酵	-12.5174
褐	-12.5175
恍	-12.5191
妓	-12.5191
璨	-12.5207
尉	-12.5257
晰	-12.5271
眷	-12.5273
煽	-12.5273
苟	-12.5284
拎	-12.529
葵	-12.5306
踵	-12.5323
罄	-12.5323
梧	-12.5334
墅	-12.5352
釜	-12.5367
烽	-12.5373
昵	-12.5401
雍	-12.5406
瞪	-12.5423
孵	-12.5434
邸	-12.5446
沐	-12.5457
鹭	-12.5479
剃	-12.5496
濮	-12.5501
泓	-12.5519
钨	-12.5524
叨	-12.5535
惬	-12.5536
驭	-12.5536
陕	-12.5546
笃	-12.5552
陀	-12.5558
枣	-12.5558
煲	-12.5586
黔	-12.5587
圃	-12.5626
陨	-12.5632
夯	-12.5632
飚	-12.5649
皖	-12.5655
咳	-12.5678
赈	-12.5684
爪	-12.5689
叭	-12.5695
咫	-12.5701
贰	-12.5712
豚	-12.5718
褒	-12.5735
嫉	-12.5776
◎	-12.5794
惶	-12.5822
葆	-12.5828
琰	-12.5886
隽	-12.5887
沂	-12.5898
墟	-12.5898
窒	-12.591
澎	-12.5922
薯	-12.5928
眩	-12.5957
雌	-12.5963
禺	-12.5963
羹	-12.5987
é	-12.5993
泸	-12.6004
赘	-12.6022
鳌	-12.6028
濠	-12.6028
疵	-12.604
卞	-12.6046
怠	-12.6081
榴	-12.6082
氰	-12.6112
绞	-12.613
亢	-12.6135
粪	-12.6142
恬	-12.6154
嚷	-12.616
芜	-12.6172
─	-12.619
褪	-12.6293
盏	-12.6299
钗	-12.6299
毗	-12.6305
钙	-12.6305
忡	-12.6323
覃	-12.6336
噬	-12.6342
璧	-12.6385
雏	-12.6397
躬	-12.6397
淆	-12.6409
哎	-12.6447
辍	-12.6453
璞	-12.6459
眈	-12.6496
吟	-12.6521
璀	-12.6521
葫	-12.654
鄢	-12.654
锻	-12.6552
卒	-12.6552
缭	-12.6565
钒	-12.6578
愣	-12.6583
忑	-12.6584
紊	-12.6584
兮	-12.659
忐	-12.6603
漩	-12.6634
凄	-12.6647
饽	-12.6647
耸	-12.6666
芮	-12.6678
襄	-12.6697
\	-12.6698
邝	-12.6698
杖	-12.6704
聋	-12.671
拌	-12.6742
伶	-12.6748
懿	-12.6767
邬	-12.6793
飓	-12.68
狡	-12.6806
溅	-12.6812
赣	-12.6812
躯	-12.6825
昙	-12.6832
疚	-12.6922
玟	-12.6922
釉	-12.6928
俘	-12.6929
哽	-12.6929
驼	-12.6935
踹	-12.6961
腊	-12.6967
诧	-12.6968
弛	-12.6974
浚	-12.6987
搓	-12.6994
屉	-12.7007
丞	-12.7014
猖	-12.702
烷	-12.704
戳	-12.704
趾	-12.7046
嗜	-12.7053
钼	-12.7119
盔	-12.7139
僚	-12.7139
沓	-12.7165
睫	-12.7226
聿	-12.7266
瓣	-12.7293
庇	-12.7347
漪	-12.7347
┓	-12.7354
裘	-12.7361
锏	-12.7367
怯	-12.7381
侬	-12.7408
拙	-12.7422
憨	-12.7525
楂	-12.7552
μ	-12.7559
哺	-12.7573
菇	-12.758
荔	-12.7587
搂	-12.7614
姊	-12.7615
藻	-12.7622
棺	-12.7622
婪	-12.7643
蔷	-12.765
霏	-12.7657
篪	-12.7678
遐	-12.7692
琅	-12.7699
眨	-12.7699
谬	-12.772
眶	-12.7727
哒	-12.7741
栈	-12.7762
懵	-12.7762
牡	-12.7783
蚕	-12.7804
骸	-12.7826
舆	-12.7885
恢	-12.7893
篡	-12.794
馅	-12.7955
逍	-12.7955
践	-12.7955
簧	-12.7976
斋	-12.7983
仆	-12.799
蚊	-12.7991
咆	-12.7998
皂	-12.8027
碾	-12.8027
懊	-12.8063
殆	-12.8092
匡	-12.81
摒	-12.8114
悸	-12.8158
谌	-12.8173
驯	-12.8173
寐	-12.8202
褶	-12.8203
笋	-12.821
蕙	-12.8254
侍	-12.8276
辕	-12.8292
漳	-12.8307
勺	-12.8321
瞿	-12.8336
焊	-12.8351
奂	-12.8372
竺	-12.8374
圻	-12.8381
澍	-12.8389
掺	-12.8389
骇	-12.8396
嵘	-12.8419
钝	-12.8449
▲	-12.8457
埠	-12.8464
嗯	-12.8487
啃	-12.8517
於	-12.8556
饺	-12.8586
悖	-12.8602
惮	-12.8632
淄	-12.8648
潞	-12.8679
淤	-12.8694
腱	-12.8741
搀	-12.8764
砝	-12.878
哉	-12.878
檬	-12.8811
钵	-12.8819
咯	-12.8819
・	-12.8835
喔	-12.8843
柠	-12.8851
粽	-12.8859
汾	-12.8866
骋	-12.8866
匕	-12.8882
缄	-12.889
歆	-12.8906
伎	-12.8914
嬉	-12.8922
糯	-12.893
瓒	-12.8938
筝	-12.8961
踞	-12.8961
沥	-12.8985
莽	-12.8993
垦	-12.9017
蚂	-12.9033
沫	-12.9057
咐	-12.9082
熹	-12.909
逮	-12.9097
倔	-12.9138
蹴	-12.9146
擎	-12.9161
谙	-12.9163
疮	-12.9171
汛	-12.9171
獗	-12.9195
吁	-12.9227
谩	-12.9228
赡	-12.9228
柿	-12.9228
珏	-12.9228
咄	-12.9236
螃	-12.9253
忻	-12.9261
筷	-12.9285
寅	-12.9302
炅	-12.9302
邂	-12.9327
钠	-12.9335
逅	-12.9335
趸	-12.9351
涪	-12.9351
惺	-12.9426
癫	-12.9493
麓	-12.9502
腩	-12.951
坍	-12.9518
拧	-12.9544
缕	-12.9586
朽	-12.9586
汲	-12.9594
毓	-12.9603
矣	-12.962
^	-12.9628
墩	-12.9628
鹊	-12.9671
刨	-12.9817
揉	-12.9826
骥	-12.9835
馒	-12.9843
邯	-12.9861
獒	-12.9861
丐	-12.9861
礁	-12.9878
沼	-12.9887
姣	-12.9913
唏	-12.9914
潢	-12.9922
匣	-12.9948
枭	-12.9948
殃	-12.9975
栓	-12.9984
砺	-13.0001
啬	-13.001
〉	-13.001
栅	-13.0019
哟	-13.0037
峨	-13.0081
鄙	-13.0126
梗	-13.0126
蹬	-13.0135
姝	-13.0153
饵	-13.0171
遴	-13.018
叱	-13.0189
薰	-13.0198
胚	-13.0234
唉	-13.0252
嫦	-13.0279
鸥	-13.0279
荟	-13.0306
砌	-13.0352
挎	-13.0352
酶	-13.0361
俑	-13.038
咨	-13.0435
瑙	-13.0453
赦	-13.0453
剽	-13.0463
迸	-13.0481
吆	-13.0481
腆	-13.049
胰	-13.0491
簇	-13.0499
诅	-13.0565
摁	-13.0574
唾	-13.0584
茆	-13.0584
嗽	-13.0584
筱	-13.0603
膳	-13.0612
翌	-13.064
癖	-13.064
暄	-13.0678
犸	-13.0686
弩	-13.0687
颊	-13.0687
拣	-13.0687
腼	-13.0697
嘀	-13.0715
穹	-13.0735
靶	-13.0792
舸	-13.0792
焉	-13.0801
燎	-13.0821
脐	-13.0821
胁	-13.0828
呛	-13.083
缇	-13.0849
嚼	-13.0869
瀑	-13.0888
榷	-13.0927
萦	-13.0956
渭	-13.0965
槌	-13.0975
狸	-13.0976
跤	-13.0995
纾	-13.0995
晔	-13.0995
哼	-13.1044
沌	-13.1054
笈	-13.1054
诋	-13.1103
渎	-13.1103
啼	-13.1122
蒿	-13.1152
俺	-13.1152
澈	-13.1162
罹	-13.1172
宸	-13.1172
悴	-13.1182
郸	-13.1192
锗	-13.1192
羲	-13.1212
琥	-13.1232
咀	-13.1252
恕	-13.1262
抠	-13.1272
蠕	-13.1272
曰	-13.1282
骼	-13.1282
斡	-13.1292
憔	-13.1302
咤	-13.1332
撮	-13.1362
岱	-13.1404
〕	-13.1424
猾	-13.1434
唠	-13.1454
〈	-13.1475
诙	-13.1485
愕	-13.1485
蔑	-13.1505
漯	-13.1505
茧	-13.1516
娩	-13.1516
┻	-13.1516
〔	-13.1516
昼	-13.1537
掰	-13.1557
銮	-13.1567
搡	-13.1588
莘	-13.1588
呱	-13.1598
缜	-13.1598
戮	-13.1609
妤	-13.1619
恙	-13.165
幌	-13.165
靳	-13.1681
跋	-13.1681
婶	-13.1702
纭	-13.1702
朦	-13.1703
湃	-13.1723
邑	-13.1734
痘	-13.1734
戎	-13.1765
褚	-13.1776
袒	-13.1861
狈	-13.1882
孽	-13.1882
帼	-13.1882
鏖	-13.1904
胧	-13.1914
乓	-13.1936
┃	-13.1947
淌	-13.1968
呜	-13.1979
檐	-13.199
苹	-13.1999
嘎	-13.2
睬	-13.2043
炖	-13.2054
渍	-13.2054
眯	-13.2065
砥	-13.2109
酮	-13.2109
柚	-13.2131
驹	-13.2131
宥	-13.2131
禀	-13.2164
稠	-13.2174
篑	-13.2175
镳	-13.2229
贻	-13.2262
撩	-13.2318
瑚	-13.2341
讪	-13.2374
缨	-13.2374
梵	-13.2374
峪	-13.2396
霓	-13.2397
晦	-13.2397
臃	-13.243
砰	-13.243
瞠	-13.243
茬	-13.243
冗	-13.2453
氮	-13.2475
弋	-13.2475
酪	-13.2487
鹃	-13.2498
甥	-13.2521
斟	-13.2532
涟	-13.2532
岔	-13.2543
¥	-13.2567
酗	-13.2578
啪	-13.2589
涝	-13.2624
蛰	-13.2624
琉	-13.2635
涎	-13.2635
涿	-13.2682
辫	-13.2693
惦	-13.2693
雳	-13.2705
娓	-13.2739
芊	-13.2751
霁	-13.2751
屎	-13.2762
蘑	-13.2763
秃	-13.2786
貂	-13.2809
跆	-13.2821
隼	-13.2844
萤	-13.2856
恪	-13.2868
霹	-13.2892
晾	-13.2927
坂	-13.2951
檄	-13.2963
蝇	-13.2974
彗	-13.2986
娆	-13.3046
娼	-13.3046
攘	-13.3058
苓	-13.307
籁	-13.3082
讥	-13.3082
呗	-13.3082
锰	-13.3094
镂	-13.3094
溉	-13.3154
涕	-13.3155
凛	-13.3203
椰	-13.3203
觊	-13.3203
茱	-13.3215
觎	-13.3215
锭	-13.3227
娣	-13.3252
涮	-13.3276
邃	-13.3289
皎	-13.3301
镯	-13.3301
遛	-13.3338
陇	-13.3338
虔	-13.335
汰	-13.335
莠	-13.335
喃	-13.3363
懋	-13.3363
厥	-13.3375
诬	-13.3375
喋	-13.3387
捺	-13.3387
彷	-13.3437
锥	-13.3437
茉	-13.3449
灸	-13.345
瞅	-13.3462
掂	-13.35
偕	-13.3537
胤	-13.3538
茗	-13.3563
燮	-13.3575
磐	-13.3575
桔	-13.3613
痞	-13.3626
瘸	-13.3626
箍	-13.3638
苇	-13.3664
垢	-13.3689
汞	-13.3715
惰	-13.3741
稼	-13.3805
晗	-13.3883
扉	-13.3935
│	-13.3962
噢	-13.4001
滇	-13.4001
菠	-13.4054
茎	-13.408
咙	-13.4081
惚	-13.4107
瞳	-13.412
狩	-13.4161
葳	-13.4161
馏	-13.4161
鳞	-13.4174
痹	-13.4187
卤	-13.4187
蛊	-13.4201
篱	-13.4214
奄	-13.4214
珈	-13.4228
憎	-13.4241
瞰	-13.4255
谛	-13.4255
嗣	-13.4268
栾	-13.4282
唬	-13.4295
柁	-13.4309
翎	-13.4391
睽	-13.4404
疹	-13.4418
琨	-13.4418
忱	-13.4419
骅	-13.4446
琶	-13.4459
胫	-13.4487
芷	-13.4501
铬	-13.4557
忏	-13.4571
珉	-13.4585
肴	-13.4612
坞	-13.4627
铆	-13.4669
瀛	-13.4669
祟	-13.4697
斓	-13.4739
沱	-13.474
螂	-13.4768
鸳	-13.4768
兀	-13.4782
阚	-13.4825
嗦	-13.4839
掣	-13.4854
唁	-13.4883
炊	-13.4897
揍	-13.4897
拗	-13.4911
鹜	-13.4926
驿	-13.4926
绎	-13.4933
拂	-13.494
芋	-13.494
讷	-13.4955
拮	-13.4955
罡	-13.4969
歼	-13.5013
酥	-13.5042
鸯	-13.5042
漕	-13.5043
魇	-13.5057
祠	-13.5057
眸	-13.5071
甬	-13.5101
礴	-13.5145
箔	-13.516
猿	-13.5175
卯	-13.5189
仟	-13.519
窿	-13.5204
杞	-13.5234
漱	-13.5249
铢	-13.5279
缎	-13.5294
泾	-13.5309
羚	-13.5309
梢	-13.5324
嘶	-13.5339
唆	-13.5339
孢	-13.5354
跚	-13.5369
骷	-13.5399
哆	-13.5399
佯	-13.5414
樾	-13.5415
虏	-13.543
筠	-13.543
浊	-13.546
郴	-13.5461
妊	-13.5476
臼	-13.5491
莺	-13.5491
窈	-13.5506
嗨	-13.5506
铤	-13.5506
髅	-13.5583
±	-13.5614
莆	-13.5614
簸	-13.563
锆	-13.563
飒	-13.563
垣	-13.563
莅	-13.5661
馁	-13.5676
湄	-13.5676
诣	-13.5676
滦	-13.5676
椭	-13.5692
砚	-13.5693
钳	-13.5739
牒	-13.5755
泯	-13.5755
锄	-13.5755
饕	-13.577
讹	-13.5786
迢	-13.5786
蹶	-13.5786
峭	-13.5818
懦	-13.5818
陂	-13.5818
碘	-13.5833
褥	-13.5849
埂	-13.5865
钯	-13.5897
瓢	-13.5913
锚	-13.5913
徙	-13.5929
搪	-13.5977
蜥	-13.6058
町	-13.6074
馥	-13.609
璃	-13.609
裳	-13.609
嚎	-13.6106
汐	-13.6122
曜	-13.6123
拴	-13.6139
啧	-13.6155
叩	-13.6155
餮	-13.6172
祯	-13.6172
岬	-13.6205
蟒	-13.6237
谚	-13.6287
臆	-13.6304
睾	-13.6337
拄	-13.6337
莞	-13.6346
腮	-13.6353
鱿	-13.6387
魑	-13.6404
酚	-13.642
锑	-13.6471
幺	-13.6505
肮	-13.6522
裆	-13.6555
膛	-13.6556
牲	-13.6572
―	-13.6607
谧	-13.6641
曳	-13.6675
皙	-13.671
迂	-13.6779
躇	-13.6779
攸	-13.6779
冼	-13.6797
翊	-13.6814
抡	-13.6831
蔺	-13.6832
捶	-13.6832
窕	-13.6849
犷	-13.6867
祀	-13.6867
踌	-13.692
嘈	-13.692
殉	-13.692
渥	-13.692
潼	-13.6956
锴	-13.6973
惭	-13.699
怂	-13.7008
蛟	-13.7009
铿	-13.7026
阑	-13.7044
蚌	-13.7062
贮	-13.708
泗	-13.7134
匾	-13.7188
轲	-13.7188
腋	-13.7206
绥	-13.7206
痰	-13.7242
羌	-13.7279
蔼	-13.7297
崴	-13.7316
®	-13.7334
睢	-13.7352
胯	-13.7352
隘	-13.7371
眺	-13.7408
搐	-13.7482
偃	-13.7501
槐	-13.7519
肛	-13.7558
瞑	-13.7576
孀	-13.7595
棣	-13.7614
掴	-13.7633
阂	-13.7652
鲲	-13.7671
泱	-13.769
脍	-13.7709
粟	-13.7728
昶	-13.7728
涣	-13.7747
濡	-13.7747
愫	-13.7844
戡	-13.7844
铵	-13.7863
桨	-13.7863
嫡	-13.7863
栎	-13.7863
◇	-13.7902
徨	-13.7921
芥	-13.7921
鲤	-13.7921
庶	-13.794
′	-13.7941
吭	-13.796
醍	-13.7961
茸	-13.7961
咖	-13.798
羿	-13.798
楣	-13.7999
憩	-13.8019
唔	-13.802
後	-13.8078
谑	-13.8079
菩	-13.8099
撂	-13.8118
塾	-13.8118
儋	-13.8138
攥	-13.8139
桀	-13.8158
瘀	-13.8158
┛	-13.8159
碚	-13.8178
衢	-13.8198
璋	-13.8198
犒	-13.8199
崽	-13.8219
咔	-13.8219
腑	-13.8238
叽	-13.8259
溱	-13.8259
榔	-13.8259
酰	-13.8299
弑	-13.832
裨	-13.834
掖	-13.834
吱	-13.836
痫	-13.838
孱	-13.8401
蜚	-13.8401
孪	-13.8401
‰	-13.8442
馋	-13.8442
笙	-13.8442
濑	-13.8483
垠	-13.8524
嗡	-13.8545
煊	-13.8545
羸	-13.8545
骜	-13.8566
踉	-13.8628
蜷	-13.865
铠	-13.865
绌	-13.8671
亘	-13.8671
犊	-13.8692
跄	-13.8712
偌	-13.8713
喽	-13.8713
茁	-13.8734
瞥	-13.8734
浔	-13.8734
亳	-13.8755
矜	-13.8798
淅	-13.8819
丕	-13.8819
脓	-13.8841
琵	-13.8862
恿	-13.8904
醚	-13.8906
彝	-13.8926
祛	-13.8926
阙	-13.8926
粱	-13.8927
岖	-13.8991
铨	-13.8991
钽	-13.9013
糗	-13.9035
藩	-13.9057
迦	-13.9078
鹦	-13.9079
慵	-13.91
獐	-13.9145
砾	-13.9167
嗤	-13.9167
舔	-13.9188
疙	-13.9189
瘩	-13.9189
挛	-13.9211
柒	-13.9233
祚	-13.9233
凋	-13.9255
艋	-13.9255
疟	-13.9322
蜒	-13.9322
蜿	-13.9345
捎	-13.9345
昀	-13.9367
摞	-13.948
娲	-13.9481
遁	-13.9481
浏	-13.9502
夙	-13.9504
冢	-13.9504
祉	-13.9504
叁	-13.9527
苔	-13.9549
忿	-13.955
诿	-13.9573
圩	-13.9573
嗒	-13.9595
翱	-13.9595
瘟	-13.9596
咚	-13.9619
嗲	-13.9642
攫	-13.9665
丶	-13.9688
缮	-13.9688
犁	-13.9758
熨	-13.9805
洱	-13.9805
螳	-13.9853
疡	-13.9853
拈	-13.9876
揄	-13.9876
诏	-13.99
镭	-13.9924
呻	-13.9924
磺	-13.9947
婵	-13.9948
铛	-13.9948
眭	-13.9972
醺	-13.9996
揶	-14.002
秆	-14.0043
颌	-14.0044
徇	-14.0092
痉	-14.0092
糜	-14.0117
鹉	-14.0141
枷	-14.0165
纂	-14.0189
筵	-14.019
桢	-14.0214
笆	-14.0239
溧	-14.0239
徉	-14.0263
徜	-14.0263
铩	-14.0288
诩	-14.0313
秸	-14.0337
潦	-14.0337
稣	-14.0337
岷	-14.0337
胱	-14.0338
恃	-14.0362
袄	-14.0362
秧	-14.0387
瘪	-14.0387
矗	-14.0412
鄞	-14.0412
箴	-14.0437
谏	-14.0462
钜	-14.0487
胭	-14.0488
榭	-14.0488
侏	-14.0513
惘	-14.0538
垄	-14.0562
≤	-14.0564
瘙	-14.0564
烃	-14.0641
锟	-14.0666
※	-14.0666
吩	-14.0666
楞	-14.069
仨	-14.0691
骛	-14.0717
遨	-14.0769
藕	-14.0795
黝	-14.0795
唳	-14.0795
猷	-14.0795
笠	-14.0795
悯	-14.0821
痼	-14.0821
幄	-14.0847
杳	-14.0847
邋	-14.0847
炕	-14.0952
舛	-14.0952
蚤	-14.0979
`	-14.1005
哩	-14.1032
荤	-14.1085
毡	-14.1112
怵	-14.1139
羔	-14.1139
骰	-14.1139
赝	-14.1139
啕	-14.1166
‧	-14.1166
札	-14.1193
綦	-14.1193
捱	-14.1193
骞	-14.1193
崧	-14.122
嗷	-14.122
菘	-14.1275
蛤	-14.1302
偎	-14.1302
郦	-14.1302
蜴	-14.1329
	-14.1329
锢	-14.1357
罔	-14.1357
猕	-14.1412
脯	-14.1412
猬	-14.1495
纰	-14.1523
遢	-14.1551
瞌	-14.1551
瓯	-14.1579
甭	-14.1608
帚	-14.1636
糅	-14.1636
怦	-14.1664
睐	-14.1719
胥	-14.1749
藐	-14.1749
褂	-14.1778
惴	-14.1778
≥	-14.1807
逵	-14.1835
畿	-14.1836
硼	-14.1864
嗑	-14.1864
滢	-14.1865
岿	-14.1894
皋	-14.1894
擘	-14.1894
氙	-14.1922
扈	-14.1951
涧	-14.1981
遑	-14.201
踮	-14.2069
の	-14.2099
┠	-14.2099
殇	-14.2128
怅	-14.2128
鞘	-14.2128
盹	-14.2158
蜢	-14.2158
缢	-14.2159
讼	-14.2161
狞	-14.2188
沅	-14.2248
铰	-14.2248
孳	-14.2248
涸	-14.2248
涓	-14.2277
掬	-14.2278
ン	-14.2278
桎	-14.2308
蟠	-14.2339
枸	-14.2369
婀	-14.2399
粳	-14.243
剁	-14.2461
癣	-14.2461
叼	-14.2491
衩	-14.2492
瘁	-14.2522
蔻	-14.2553
狰	-14.2584
菀	-14.2616
邰	-14.2616
铧	-14.2616
苞	-14.2647
樵	-14.2647
榫	-14.2678
庹	-14.271
鬓	-14.2741
掳	-14.2773
砷	-14.2773
煦	-14.2773
漉	-14.2805
葩	-14.2868
楔	-14.2868
蟑	-14.2868
喳	-14.29
镰	-14.29
钕	-14.2932
灬	-14.2933
搔	-14.2965
柑	-14.2965
颚	-14.2997
锹	-14.3029
泞	-14.303
钴	-14.3061
晁	-14.3062
腌	-14.3062
皿	-14.3127
苒	-14.3128
馗	-14.3161
」	-14.3293
悻	-14.3293
痣	-14.3293
「	-14.3326
摹	-14.3327
俾	-14.3327
淞	-14.336
跛	-14.3394
诲	-14.3394
劾	-14.3394
箐	-14.3428
浜	-14.3462
啡	-14.3564
坨	-14.3565
鹄	-14.3598
噎	-14.3598
蛀	-14.3599
颍	-14.3633
旖	-14.3667
赅	-14.3702
鲶	-14.3702
轼	-14.3702
蜻	-14.3702
菏	-14.3737
缰	-14.3772
矶	-14.3807
稔	-14.3807
琏	-14.3842
呦	-14.3842
鳍	-14.3877
锲	-14.3877
晌	-14.3878
帛	-14.3878
冽	-14.3913
纫	-14.3913
绫	-14.3949
阖	-14.3984
噜	-14.3984
杓	-14.3984
琚	-14.402
箩	-14.402
寮	-14.4056
蜓	-14.4056
廿	-14.4092
腓	-14.4092
∩	-14.4092
邳	-14.4128
壕	-14.4129
傀	-14.4129
镉	-14.4165
­	-14.4165
跺	-14.4237
肽	-14.4238
鬟	-14.4238
玷	-14.4238
鸵	-14.4275
衙	-14.4275
雹	-14.4312
缙	-14.4349
蘸	-14.4386
呃	-14.4386
擞	-14.4423
囔	-14.4423
橇	-14.4461
儡	-14.4461
郧	-14.4461
荚	-14.4461
堑	-14.4498
皑	-14.4536
庵	-14.4536
蹩	-14.4536
潺	-14.4611
贲	-14.4612
浣	-14.4612
癀	-14.4649
锷	-14.4649
撵	-14.465
龈	-14.465
侑	-14.4688
β	-14.4688
湮	-14.4688
韭	-14.4688
舫	-14.4689
洮	-14.4727
袤	-14.4804
霎	-14.4843
椿	-14.4843
蟆	-14.4882
滁	-14.4921
烬	-14.4921
拚	-14.4921
烩	-14.4921
酉	-14.4922
蹋	-14.4922
鄱	-14.4922
辘	-14.5001
囹	-14.504
踱	-14.504
柘	-14.504
痔	-14.508
幔	-14.516
窨	-14.516
珐	-14.516
蓟	-14.516
勐	-14.516
碴	-14.52
鼾	-14.5201
倭	-14.5201
妾	-14.5241
绢	-14.5281
倜	-14.5281
邺	-14.5281
嚏	-14.5322
讣	-14.5322
嫔	-14.5322
蛾	-14.5323
馍	-14.5363
咂	-14.5363
颧	-14.5363
髋	-14.5363
戾	-14.5404
谘	-14.5404
圄	-14.5404
幡	-14.5404
钿	-14.5405
诃	-14.5446
镣	-14.5487
捌	-14.5487
溏	-14.5528
荀	-14.5529
噼	-14.5529
嬷	-14.557
璩	-14.5571
唧	-14.5613
÷	-14.5613
淖	-14.5655
桉	-14.5655
骧	-14.5698
惆	-14.574
囡	-14.5783
瓮	-14.5783
耒	-14.5783
蟾	-14.5783
瘠	-14.5869
钚	-14.5869
啷	-14.5869
嘭	-14.5869
痿	-14.5912
叻	-14.5912
鳖	-14.5912
壑	-14.5955
殒	-14.5956
狒	-14.5956
赊	-14.5999
迩	-14.5999
焯	-14.6
摈	-14.6042
恣	-14.6043
岘	-14.6043
髻	-14.6043
矽	-14.6043
膑	-14.6086
钲	-14.6087
疱	-14.6087
嚓	-14.6132
苷	-14.6175
蔫	-14.6176
溥	-14.622
赳	-14.622
捋	-14.622
挞	-14.6265
锒	-14.6265
炀	-14.6265
秣	-14.631
腭	-14.631
霈	-14.6356
阉	-14.6356
篆	-14.6356
诨	-14.6401
傥	-14.6401
伉	-14.6401
颢	-14.6401
蜇	-14.6401
烊	-14.6446
嗔	-14.6447
藜	-14.6492
黠	-14.6492
氦	-14.6493
峦	-14.6538
诘	-14.6585
膦	-14.6631
缥	-14.6631
飨	-14.6631
闾	-14.6632
罂	-14.6678
俸	-14.6678
皈	-14.6678
糠	-14.6725
芈	-14.6726
恻	-14.6772
抿	-14.6819
龊	-14.6819
耷	-14.6819
殓	-14.682
聃	-14.6868
粼	-14.696
捻	-14.6962
讴	-14.6963
龌	-14.6963
郫	-14.6963
疝	-14.7013
昴	-14.7059
缈	-14.7109
谲	-14.7109
湍	-14.7109
⋯	-14.7109
铊	-14.7158
戊	-14.7158
砭	-14.7158
葭	-14.7158
ス	-14.7158
戌	-14.7158
颦	-14.7256
褓	-14.7256
邡	-14.7256
叵	-14.7356
匝	-14.7406
襁	-14.7406
篓	-14.7406
麽	-14.7407
镌	-14.7457
霰	-14.7457
嘹	-14.7507
铟	-14.7559
浃	-14.7661
袅	-14.7713
薏	-14.7713
睑	-14.7713
咛	-14.7713
è	-14.7714
凰	-14.7765
箫	-14.7765
吒	-14.7766
懑	-14.7766
荞	-14.7766
荻	-14.7818
唑	-14.7818
弭	-14.7818
尻	-14.787
樽	-14.7923
囿	-14.7923
硒	-14.7977
篝	-14.7977
谕	-14.7977
珩	-14.803
吡	-14.803
裱	-14.8083
菡	-14.8083
蚓	-14.8084
イ	-14.8084
咦	-14.8138
喱	-14.8138
鹂	-14.8192
咣	-14.8192
旌	-14.8192
谆	-14.8302
唰	-14.8357
碜	-14.8357
枰	-14.8412
僮	-14.8413
箕	-14.8413
咿	-14.8413
伫	-14.8468
蚝	-14.8469
剐	-14.8469
骡	-14.8469
淦	-14.8469
撅	-14.8525
酩	-14.8525
嗖	-14.8525
稷	-14.8638
蕲	-14.8638
蚯	-14.8638
噗	-14.8695
睇	-14.8695
吠	-14.8696
阡	-14.8753
荏	-14.8753
闰	-14.8753
壬	-14.8753
樨	-14.8753
仝	-14.8811
醴	-14.8869
邛	-14.8927
俚	-14.8927
耙	-14.8986
荨	-14.8986
阄	-14.8986
鲟	-14.8986
庖	-14.9044
盅	-14.9045
觐	-14.9045
龅	-14.9045
锺	-14.9045
虱	-14.9104
焙	-14.9104
沭	-14.9105
吏	-14.9164
褛	-14.9164
仄	-14.9164
绛	-14.9165
铖	-14.9165
楹	-14.9165
崂	-14.9224
蹉	-14.9224
痢	-14.9225
儆	-14.9225
谟	-14.9225
蓁	-14.9285
坳	-14.9286
┣	-14.9286
筏	-14.9286
琬	-14.9346
い	-14.9346
揩	-14.9408
鹫	-14.9408
螨	-14.9408
{	-14.9408
鬃	-14.9408
柩	-14.9469
嵇	-14.947
溴	-14.9531
吮	-14.9531
鲇	-14.9532
蓦	-14.9532
唷	-14.9532
蝗	-14.9594
≠	-14.9594
}	-14.9594
妪	-14.9594
啄	-14.972
φ	-14.9782
舀	-14.9784
疽	-14.9848
跎	-14.9848
暌	-14.9848
龛	-14.9912
à	-14.9913
鲅	-14.9913
谯	-14.9977
仃	-14.9978
ア	-14.9978
浠	-15.0043
崃	-15.0043
恸	-15.0043
鳅	-15.0043
碣	-15.0043
椋	-15.0109
伢	-15.0109
蚩	-15.0109
铄	-15.0109
澧	-15.0109
淬	-15.0109
汩	-15.0174
镛	-15.0175
胄	-15.0241
ト	-15.0241
剌	-15.0242
榛	-15.0242
忒	-15.0308
腴	-15.0308
肓	-15.0309
孺	-15.0309
颛	-15.0376
渚	-15.0445
俎	-15.0512
橹	-15.0512
哧	-15.0512
麝	-15.0513
饷	-15.0581
蛎	-15.0582
侗	-15.0651
尕	-15.0651
谶	-15.0651
陛	-15.0652
傣	-15.0721
沣	-15.0721
鲫	-15.0721
羟	-15.0721
甯	-15.0721
噔	-15.0791
噙	-15.0791
』	-15.0792
『	-15.0792
颉	-15.0792
痍	-15.0792
娈	-15.0792
槛	-15.0852
娑	-15.0862
珲	-15.0862
嵊	-15.0863
蛆	-15.0934
铯	-15.0934
á	-15.0934
√	-15.0934
牍	-15.0934
纣	-15.0934
噶	-15.1003
辊	-15.1005
宦	-15.1005
玑	-15.1005
鸾	-15.1006
喵	-15.1006
掮	-15.1006
滟	-15.1078
妲	-15.1151
盂	-15.1151
毂	-15.1151
枥	-15.1224
蜱	-15.1225
Ø	-15.1225
ル	-15.1225
黜	-15.1299
ü	-15.1299
琮	-15.1373
蝌	-15.1373
リ	-15.1373
徵	-15.1448
砻	-15.1448
芍	-15.1448
瘴	-15.1449
馄	-15.1524
弼	-15.1524
舷	-15.1525
璜	-15.16
脲	-15.16
刽	-15.1601
嬗	-15.1677
扪	-15.1677
癜	-15.1677
墒	-15.1678
汨	-15.1678
啖	-15.1755
骐	-15.1755
犟	-15.1755
肄	-15.1755
悱	-15.1833
怆	-15.1833
趄	-15.1833
噤	-15.1834
搽	-15.1911
饨	-15.1912
ラ	-15.1912
趔	-15.1912
蕃	-15.1912
瓴	-15.1912
焖	-15.1912
匍	-15.1912
忪	-15.1912
し	-15.1991
嗝	-15.1992
噻	-15.1992
哐	-15.2071
ク	-15.2071
矍	-15.2071
陉	-15.2071
厝	-15.2072
肱	-15.2072
佚	-15.2072
榉	-15.2072
汴	-15.2152
蜈	-15.2152
鳗	-15.2152
蚪	-15.2233
氡	-15.2233
匐	-15.2233
骊	-15.2233
艮	-15.2315
撷	-15.2315
靥	-15.2315
唢	-15.2315
喙	-15.2315
驮	-15.2481
忾	-15.2481
铣	-15.2481
戬	-15.2481
滂	-15.2481
氛	-15.2559
掸	-15.2565
て	-15.2565
瞟	-15.265
韪	-15.265
犄	-15.265
纨	-15.265
邴	-15.2651
梆	-15.2735
劭	-15.2735
焘	-15.2735
酊	-15.2735
膘	-15.2736
胛	-15.2822
疣	-15.2822
挈	-15.2822
苡	-15.2822
痧	-15.2822
忖	-15.2909
蜃	-15.2909
谳	-15.2909
呲	-15.2996
耆	-15.2996
窠	-15.2996
ッ	-15.2996
咩	-15.2996
碉	-15.2996
痨	-15.2996
芪	-15.3084
轫	-15.3084
蹑	-15.3085
倌	-15.3085
垛	-15.3085
牦	-15.3085
逄	-15.3085
靛	-15.3085
岫	-15.3085
遒	-15.3085
铡	-15.3085
暹	-15.3085
愎	-15.3085
绯	-15.3174
柞	-15.3174
嬴	-15.3174
隍	-15.3174
槎	-15.3174
鸩	-15.3174
佻	-15.3174
蜍	-15.3175
镝	-15.3264
洵	-15.3265
垭	-15.3265
盥	-15.3355
砒	-15.3355
褴	-15.3355
た	-15.3355
呸	-15.3355
怔	-15.3355
嵋	-15.3355
樘	-15.3356
怿	-15.3447
茏	-15.3447
宓	-15.3447
§	-15.3447
£	-15.354
撙	-15.354
铱	-15.354
鹑	-15.3633
噌	-15.3633
啜	-15.3633
鲑	-15.3633
钺	-15.3633
堀	-15.3633
杵	-15.3727
荥	-15.3727
悭	-15.3822
镊	-15.3822
愠	-15.3823
镓	-15.3823
砧	-15.3823
铌	-15.3824
楸	-15.3918
秩	-15.3918
赓	-15.3919
蚣	-15.3919
炔	-15.392
苜	-15.4015
蓿	-15.4015
敝	-15.4016
饬	-15.4016
跖	-15.4016
虬	-15.4016
笺	-15.4016
ド	-15.4016
耦	-15.4114
〖	-15.4114
痂	-15.4114
殚	-15.4114
孑	-15.4114
⁄	-15.4114
鹌	-15.4213
铳	-15.4213
π	-15.4213
盱	-15.4213
枧	-15.4213
锝	-15.4312
蛉	-15.4312
蝈	-15.4312
啶	-15.4313
耄	-15.4313
	-15.4313
竽	-15.4313
恁	-15.4313
怏	-15.4413
髌	-15.4414
豉	-15.4414
毽	-15.4414
擀	-15.4414
莴	-15.4516
耋	-15.4516
獠	-15.4516
璎	-15.4516
酐	-15.4618
韫	-15.4619
茯	-15.4619
骢	-15.4619
郄	-15.4619
鲈	-15.4723
と	-15.4723
í	-15.4723
坻	-15.4723
蠡	-15.4723
戍	-15.4724
擢	-15.4724
掇	-15.4828
骶	-15.4828
墉	-15.4828
シ	-15.4829
丨	-15.4829
邗	-15.4934
鎏	-15.4935
飕	-15.4935
咻	-15.5042
陲	-15.5042
鸢	-15.5042
杈	-15.5042
Φ	-15.5042
龇	-15.5042
谒	-15.5042
ん	-15.5042
揖	-15.5042
莪	-15.5043
〗	-15.5151
撸	-15.5151
泔	-15.5151
ロ	-15.5151
濉	-15.5261
钎	-15.5261
ó	-15.5261
饴	-15.5261
睨	-15.5261
颞	-15.5261
か	-15.5261
濂	-15.5261
桷	-15.5261
泮	-15.5261
觥	-15.5371
虻	-15.5372
眙	-15.5372
锃	-15.5372
う	-15.5372
湎	-15.5373
馊	-15.5484
垡	-15.5484
峤	-15.5485
葺	-15.5485
訾	-15.5598
凼	-15.5598
遽	-15.5598
缶	-15.5598
婺	-15.5598
鼹	-15.5712
聒	-15.5713
粑	-15.5713
镗	-15.5713
鲱	-15.5713
鳕	-15.5713
俣	-15.5713
涔	-15.5713
埭	-15.5713
蹙	-15.5828
潲	-15.5828
莜	-15.5829
郾	-15.5829
フ	-15.5947
绉	-15.5947
睥	-15.5947
に	-15.5947
が	-15.5947
熵	-15.5947
舂	-15.6066
巳	-15.6066
胴	-15.6066
仞	-15.6066
逯	-15.6066
な	-15.6186
垩	-15.6186
タ	-15.6186
绔	-15.6186
哏	-15.6186
呤	-15.6186
绶	-15.6187
滓	-15.6187
樯	-15.6187
础	-15.6305
呷	-15.6308
馀	-15.6308
鸨	-15.6308
泷	-15.6308
嘣	-15.6308
谡	-15.6308
で	-15.6309
郯	-15.6309
佝	-15.6309
桡	-15.6309
吖	-15.6309
旮	-15.6431
麸	-15.6432
レ	-15.6432
荪	-15.6432
侪	-15.6432
卅	-15.6432
獭	-15.6556
嶙	-15.6557
佃	-15.6557
岙	-15.6557
橼	-15.6557
芗	-15.6558
缛	-15.6682
刎	-15.6683
佶	-15.6683
偻	-15.6683
ジ	-15.6683
囝	-15.6683
丿	-15.6684
鳝	-15.6684
峋	-15.6684
螈	-15.6811
囵	-15.6811
阆	-15.6812
馑	-15.6812
孬	-15.6812
绺	-15.6812
Ο	-15.6812
を	-15.6812
氲	-15.6941
笞	-15.6941
裟	-15.6941
溟	-15.6941
簌	-15.6941
钇	-15.6941
枳	-15.6941
メ	-15.6942
殳	-15.6942
氤	-15.7072
黍	-15.7072
膈	-15.7073
藓	-15.7073
藁	-15.7074
圳	-15.7203
锱	-15.7206
疃	-15.7206
褫	-15.7206
▶	-15.7207
鹈	-15.7207
怄	-15.7207
佗	-15.7207
栉	-15.7341
旯	-15.7341
囫	-15.7341
娉	-15.7341
ま	-15.7341
倬	-15.7342
揆	-15.7343
尬	-15.7617
怖	-16.2136
尴	-16.5199
垃	-16.8744
圾	-17.1135
潸	-17.8904
啻	-17.8905
梏	-17.8906
囱	-17.8907
躏	-17.8908
蹂	-17.8909
娠	-17.891
蹒	-17.8911
豌	-17.8912
讧	-17.8913
挝	-17.8914
牺	-17.8914
